<pad>	0
<unk>	0
<s>	0
</s>	0
in	-0
▁t	-1
▁a	-2
he	-3
--	-4
re	-5
▁the	-6
▁s	-7
er	-8
on	-9
▁c	-10
▁i	-11
le	-12
ut	-13
st	-14
or	-15
▁1	-16
▁in	-17
▁f	-18
▁=	-19
te	-20
▁n	-21
▁o	-22
▁d	-23
▁p	-24
an	-25
en	-26
▁of	-27
at	-28
▁b	-29
put	-30
▁an	-31
▁e	-32
▁w	-33
se	-34
▁m	-35
ing	-36
um	-37
ar	-38
▁$	-39
al	-40
▁to	-41
it	-42
----	-43
▁re	-44
ou	-45
▁2	-46
es	-47
-----	-48
):	-49
▁l	-50
00	-51
""	-52
▁is	-53
mp	-54
▁and	-55
ion	-56
ac	-57
▁de	-58
▁th	-59
▁(	-60
ro	-61
int	-62
▁-	-63
ll	-64
▁T	-65
▁I	-66
▁for	-67
ge	-68
ur	-69
▁0	-70
▁3	-71
ec	-72
▁def	-73
▁g	-74
▁num	-75
▁h	-76
▁if	-77
▁r	-78
1,	-79
()	-80
ve	-81
de	-82
im	-83
ot	-84
ers	-85
is	-86
as	-87
ic	-88
ay	-89
▁[	-90
▁st	-91
▁+	-92
▁con	-93
ol	-94
▁on	-95
▁\	-96
▁ex	-97
▁The	-98
urn	-99
ir	-100
ow	-101
▁numb	-102
ul	-103
▁-----	-104
est	-105
▁"	-106
turn	-107
0,	-108
▁In	-109
qu	-110
ate	-111
▁return	-112
ase	-113
utput	-114
ine	-115
mple	-116
▁be	-117
▁A	-118
"""	-119
▁y	-120
ist	-121
▁le	-122
ap	-123
me	-124
ent	-125
▁4	-126
th	-127
ain	-128
▁"""	-129
▁v	-130
▁test	-131
▁that	-132
ig	-133
ample	-134
ly	-135
▁inte	-136
ange	-137
▁number	-138
▁integ	-139
▁as	-140
Output	-141
▁5	-142
ce	-143
▁are	-144
rint	-145
res	-146
id	-147
pl	-148
ult	-149
nt	-150
ed	-151
▁S	-152
▁'	-153
input	-154
",	-155
ort	-156
▁`	-157
▁N	-158
▁se	-159
))	-160
2,	-161
▁can	-162
▁cont	-163
test	-164
▁x	-165
▁range	-166
ble	-167
co	-168
..	-169
ct	-170
▁co	-171
ach	-172
▁k	-173
os	-174
▁10	-175
▁str	-176
▁or	-177
irst	-178
ter	-179
ith	-180
],	-181
▁contain	-182
▁imp	-183
▁Input	-184
▁print	-185
ri	-186
rom	-187
▁#	-188
▁≤	-189
iv	-190
▁import	-191
▁first	-192
▁F	-193
▁it	-194
ax	-195
ation	-196
():	-197
▁u	-198
ill	-199
▁*	-200
▁Output	-201
▁he	-202
▁==	-203
▁line	-204
▁<	-205
ld	-206
▁from	-207
▁ar	-208
▁wh	-209
end	-210
▁M	-211
▁you	-212
ted	-213
10	-214
▁ch	-215
ad	-216
ame	-217
3,	-218
and	-219
▁E	-220
▁with	-221
▁one	-222
ue	-223
_{	-224
-1	-225
▁ans	-226
ht	-227
ray	-228
if	-229
ak	-230
ch	-231
▁contains	-232
▁each	-233
▁su	-234
▁P	-235
ment	-236
▁mo	-237
▁6	-238
py	-239
▁input	-240
▁el	-241
ond	-242
▁C	-243
case	-244
▁string	-245
▁will	-246
▁res	-247
])	-248
▁ne	-249
5,	-250
▁integer	-251
si	-252
▁so	-253
▁not	-254
``	-255
▁B	-256
▁pos	-257
ount	-258
▁all	-259
▁sh	-260
▁j	-261
her	-262
▁integers	-263
ind	-264
wo	-265
ight	-266
ver	-267
▁min	-268
',	-269
ave	-270
$.	-271
▁7	-272
▁np	-273
▁len	-274
ata	-275
▁case	-276
str	-277
▁at	-278
▁max	-279
).	-280
▁sec	-281
ution	-282
am	-283
▁two	-284
▁this	-285
xample	-286
ert	-287
▁val	-288
result	-289
▁Y	-290
oo	-291
iven	-292
xt	-293
ould	-294
▁pl	-295
▁int	-296
ote	-297
▁second	-298
99	-299
plit	-300
][	-301
▁pro	-302
ive	-303
art	-304
$,	-305
un	-306
0000	-307
leq	-308
),	-309
et	-310
ans	-311
11	-312
▁by	-313
lo	-314
ab	-315
pec	-316
▁1,	-317
▁else	-318
().	-319
▁H	-320
om	-321
split	-322
ma	-323
▁—	-324
ord	-325
())	-326
▁has	-327
ime	-328
▁ro	-329
act	-330
olution	-331
▁8	-332
app	-333
▁array	-334
ction	-335
▁have	-336
oll	-337
imum	-338
ant	-339
▁L	-340
▁+=	-341
01	-342
0]	-343
##	-344
gth	-345
▁For	-346
pe	-347
In	-348
▁```	-349
lf	-350
▁given	-351
get	-352
▁W	-353
red	-354
▁list	-355
4,	-356
ollow	-357
▁10^	-358
ile	-359
▁follow	-360
per	-361
quen	-362
ints	-363
▁col	-364
iz	-365
▁example	-366
ace	-367
▁>	-368
▁exec	-369
sert	-370
▁there	-371
code	-372
▁result	-373
("	-374
▁df	-375
il	-376
▁9	-377
ast	-378
+1	-379
▁we	-380
ard	-381
//	-382
▁sum	-383
▁al	-384
Input	-385
our	-386
erate	-387
ck	-388
sible	-389
ip	-390
len	-391
ther	-392
▁do	-393
...	-394
▁$1	-395
▁2,	-396
ich	-397
op	-398
▁100	-399
**	-400
▁find	-401
fe	-402
▁should	-403
▁ele	-404
ies	-405
▁only	-406
▁D	-407
▁tr	-408
quence	-409
ition	-410
append	-411
ack	-412
nd	-413
ree	-414
▁R	-415
▁any	-416
▁gen	-417
▁count	-418
▁which	-419
▁whe	-420
▁sing	-421
▁0,	-422
▁po	-423
qual	-424
map	-425
pt	-426
6,	-427
▁single	-428
++	-429
23	-430
▁length	-431
ake	-432
pected	-433
▁{	-434
8,	-435
▁generate	-436
mo	-437
▁If	-438
ask	-439
▁qu	-440
▁sub	-441
▁no	-442
▁_	-443
▁element	-444
▁expected	-445
male	-446
us	-447
7,	-448
ft	-449
Example	-450
▁numbers	-451
▁1)	-452
der	-453
one	-454
▁pd	-455
▁possible	-456
for	-457
▁char	-458
▁mat	-459
26	-460
('	-461
▁fun	-462
dex	-463
ik	-464
▁($	-465
▁<=	-466
ated	-467
▁You	-468
▁sp	-469
rent	-470
":	-471
▁gr	-472
▁some	-473
▁per	-474
▁let	-475
20	-476
el	-477
ays	-478
▁get	-479
==	-480
▁pa	-481
▁...	-482
all	-483
▁answ	-484
[1	-485
ell	-486
▁(1	-487
sum	-488
▁O	-489
▁-1	-490
▁while	-491
▁sequence	-492
fter	-493
▁other	-494
▁3,	-495
ty	-496
0,0,	-497
▁:	-498
ass	-499
24	-500
ize	-501
[0]	-502
ub	-503
able	-504
val	-505
▁solution	-506
blem	-507
▁function	-508
▁1:	-509
▁0.	-510
▁following	-511
()))	-512
9,	-513
▁such	-514
▁ab	-515
ust	-516
▁want	-517
num	-518
ally	-519
([	-520
env	-521
ces	-522
▁then	-523
25	-524
▁value	-525
")	-526
its	-527
▁time	-528
▁Example	-529
to	-530
ity	-531
▁equal	-532
▁K	-533
array	-534
dd	-535
ines	-536
mat	-537
con	-538
gr	-539
▁cons	-540
000	-541
ise	-542
ations	-543
45	-544
▁Mr	-545
▁|	-546
▁numpy	-547
ice	-548
▁z	-549
27	-550
33	-551
ang	-552
list	-553
▁his	-554
▁order	-555
=1	-556
▁dist	-557
▁them	-558
alse	-559
▁answer	-560
':	-561
ag	-562
ne	-563
21	-564
▁%	-565
ys	-566
text	-567
▁me	-568
28	-569
out	-570
')	-571
▁minimum	-572
are	-573
2)	-574
we	-575
ns	-576
▁G	-577
-1]	-578
ots	-579
ks	-580
▁than	-581
ower	-582
▁same	-583
▁dif	-584
_1,	-585
ues	-586
self	-587
▁te	-588
15	-589
ded	-590
ens	-591
ict	-592
les	-593
-0	-594
▁It	-595
ance	-596
35	-597
▁cal	-598
▁cases	-599
tal	-600
rue	-601
rite	-602
ie	-603
max	-604
▁cur	-605
29	-606
_1	-607
▁arr	-608
ci	-609
▁data	-610
▁oper	-611
imes	-612
▁maximum	-613
▁but	-614
stra	-615
(1	-616
Note	-617
▁cl	-618
up	-619
Examples	-620
$-	-621
▁play	-622
▁che	-623
ong	-624
$)	-625
rand	-626
▁V	-627
▁Print	-628
▁elements	-629
ore	-630
_2,	-631
▁need	-632
string	-633
▁consist	-634
87	-635
▁Each	-636
66	-637
▁Th	-638
par	-639
straints	-640
age	-641
▁X	-642
▁total	-643
ters	-644
34	-645
▁code	-646
▁11	-647
Sample	-648
cd	-649
▁dig	-650
▁bet	-651
pres	-652
▁0:	-653
▁set	-654
▁lo	-655
line	-656
▁row	-657
)]	-658
tr	-659
▁start	-660
▁word	-661
(1,	-662
ect	-663
ars	-664
ors	-665
▁output	-666
▁($1	-667
89	-668
ish	-669
▁left	-670
arr	-671
def	-672
▁un	-673
ps	-674
ary	-675
]:	-676
_2	-677
read	-678
!=	-679
▁cor	-680
▁lines	-681
▁points	-682
▁use	-683
ound	-684
▁sol	-685
min	-686
▁where	-687
▁up	-688
▁define	-689
rame	-690
ial	-691
▁cell	-692
▁elif	-693
▁He	-694
####	-695
▁self	-696
37	-697
ween	-698
30	-699
ven	-700
▁part	-701
▁after	-702
▁they	-703
ird	-704
14	-705
form	-706
ery	-707
▁[1,	-708
▁com	-709
▁next	-710
67	-711
copy	-712
now	-713
▁den	-714
▁pair	-715
▁des	-716
cul	-717
▁bo	-718
ices	-719
3,"	-720
andas	-721
▁**	-722
ves	-723
ite	-724
▁between	-725
},	-726
▁problem	-727
cc	-728
▁end	-729
cri	-730
ents	-731
insert	-732
▁en	-733
▁[]	-734
▁your	-735
so	-736
].	-737
84	-738
▁pandas	-739
ike	-740
▁does	-741
▁right	-742
▁sample	-743
▁1.	-744
85	-745
▁ap	-746
▁out	-747
gh	-748
col	-749
data	-750
ud	-751
du	-752
101	-753
▁diffe	-754
65	-755
▁//	-756
▁pre	-757
place	-758
any	-759
context	-760
onstraints	-761
▁make	-762
▁third	-763
oose	-764
".	-765
▁colum	-766
▁go	-767
▁->	-768
▁4,	-769
▁J	-770
▁q	-771
▁three	-772
▁assert	-773
▁position	-774
▁bec	-775
▁letters	-776
80	-777
ure	-778
▁more	-779
▁index	-780
17	-781
["	-782
ood	-783
imal	-784
itive	-785
▁pr	-786
++++	-787
((	-788
row	-789
▁bot	-790
▁us	-791
cl	-792
:-----	-793
count	-794
64	-795
▁)	-796
ren	-797
__	-798
wise	-799
▁values	-800
▁into	-801
.0	-802
ss	-803
▁new	-804
▁calcul	-805
▁div	-806
ex	-807
▁201	-808
[0	-809
▁$2	-810
po	-811
ES	-812
ff	-813
acters	-814
▁ty	-815
▁There	-816
=0	-817
▁bu	-818
19	-819
▁choose	-820
▁gu	-821
df	-822
▁exact	-823
▁its	-824
60	-825
▁move	-826
▁exce	-827
ari	-828
▁15	-829
77	-830
ates	-831
▁know	-832
▁2:	-833
very	-834
]]	-835
▁repres	-836
▁day	-837
▁squ	-838
▁10^5	-839
▁space	-840
▁Note	-841
"],	-842
jo	-843
▁task	-844
ep	-845
▁am	-846
▁!=	-847
▁characters	-848
reak	-849
sh	-850
▁True	-851
▁game	-852
▁last	-853
▁exactly	-854
▁5,	-855
39	-856
▁wants	-857
▁like	-858
▁plt	-859
che	-860
▁positive	-861
ey	-862
ick	-863
▁descri	-864
▁mod	-865
ire	-866
▁sys	-867
plan	-868
ww	-869
▁way	-870
Constraints	-871
acter	-872
▁pat	-873
69	-874
ix	-875
ber	-876
av	-877
5,,	-878
ON	-879
mpty	-880
set	-881
▁solve	-882
▁check	-883
.5	-884
ng	-885
parated	-886
18	-887
od	-888
▁ob	-889
▁12	-890
▁10^9	-891
right	-892
▁False	-893
▁break	-894
cre	-895
planation	-896
▁non	-897
com	-898
▁dp	-899
ess	-900
rix	-901
aph	-902
ous	-903
▁...,	-904
▁class	-905
▁strings	-906
ins	-907
ero	-908
ions	-909
▁sm	-910
▁calculate	-911
xplanation	-912
▁different	-913
hef	-914
▁$1$	-915
▁she	-916
=[	-917
▁fl	-918
▁So	-919
au	-920
thon	-921
▁20	-922
▁mult	-923
gest	-924
inal	-925
▁1]	-926
ild	-927
random	-928
solution	-929
ob	-930
[:	-931
75	-932
▁these	-933
▁character	-934
1,1,	-935
▁-=	-936
▁digits	-937
▁wor	-938
ya	-939
▁$(	-940
▁sk	-941
orted	-942
iss	-943
31	-944
2]	-945
44	-946
.0,	-947
ante	-948
▁every	-949
index	-950
mage	-951
akes	-952
▁$[	-953
`.	-954
▁,	-955
▁$\	-956
arante	-957
▁point	-958
▁times	-959
ib	-960
▁size	-961
ten	-962
female	-963
pos	-964
▁guarante	-965
','	-966
▁their	-967
mut	-968
move	-969
TI	-970
otes	-971
▁must	-972
70	-973
▁put	-974
1]	-975
▁ed	-976
ater	-977
ape	-978
gment	-979
▁who	-980
▁four	-981
▁how	-982
oup	-983
plot	-984
▁add	-985
00000000	-986
▁ax	-987
eries	-988
▁guaranteed	-989
▁was	-990
core	-991
replace	-992
`,	-993
Frame	-994
oly	-995
▁lower	-996
▁least	-997
▁may	-998
16	-999
22	-1000
▁Then	-1001
▁would	-1002
ataFrame	-1003
95	-1004
sed	-1005
cdot	-1006
▁when	-1007
▁valid	-1008
time	-1009
▁many	-1010
▁cost	-1011
)$	-1012
type	-1013
din	-1014
TION	-1015
▁both	-1016
▁stud	-1017
88	-1018
ses	-1019
▁comp	-1020
not	-1021
main	-1022
▁Write	-1023
[1]	-1024
▁Your	-1025
▁also	-1026
IN	-1027
ph	-1028
▁[[	-1029
term	-1030
own	-1031
ide	-1032
-1)	-1033
ating	-1034
ough	-1035
▁even	-1036
▁format	-1037
0)	-1038
join	-1039
pro	-1040
▁cand	-1041
low	-1042
▁Chef	-1043
fore	-1044
7.	-1045
ute	-1046
36	-1047
▁try	-1048
abc	-1049
▁14	-1050
://	-1051
riend	-1052
ative	-1053
da	-1054
led	-1055
▁Al	-1056
▁gre	-1057
ry	-1058
readline	-1059
▁type	-1060
with	-1061
▁.	-1062
ign	-1063
▁cnt	-1064
}$	-1065
▁him	-1066
length	-1067
ways	-1068
▁tok	-1069
ired	-1070
▁/	-1071
▁lar	-1072
▁words	-1073
▁using	-1074
aa	-1075
termine	-1076
-1,	-1077
▁ad	-1078
isi	-1079
ause	-1080
▁form	-1081
ctions	-1082
arn	-1083
▁map	-1084
▁card	-1085
rip	-1086
oting	-1087
▁2.	-1088
ical	-1089
left	-1090
pect	-1091
201	-1092
DataFrame	-1093
▁operation	-1094
▁&	-1095
(0,	-1096
OL	-1097
▁{"	-1098
tern	-1099
inct	-1100
inn	-1101
rect	-1102
igh	-1103
▁St	-1104
12	-1105
▁square	-1106
"]	-1107
▁["	-1108
▁$3	-1109
que	-1110
79	-1111
▁requ	-1112
▁id	-1113
▁nums	-1114
▁consisting	-1115
ok	-1116
amb	-1117
▁pe	-1118
gram	-1119
+1)	-1120
▁>=	-1121
▁Solution	-1122
lock	-1123
▁take	-1124
▁denoting	-1125
▁U	-1126
▁multip	-1127
▁permut	-1128
▁2)	-1129
▁vari	-1130
--------	-1131
bo	-1132
OLU	-1133
....	-1134
)))	-1135
50	-1136
▁read	-1137
▁follows	-1138
ges	-1139
lose	-1140
ordin	-1141
74	-1142
task	-1143
▁ind	-1144
▁None	-1145
▁letter	-1146
▁Pro	-1147
ook	-1148
ms	-1149
OLUTION	-1150
,2	-1151
▁init	-1152
alle	-1153
▁query	-1154
10^	-1155
▁friend	-1156
ince	-1157
▁opt	-1158
You	-1159
38	-1160
▁SOLUTION	-1161
▁All	-1162
0,3,"	-1163
The	-1164
▁dis	-1165
▁This	-1166
ash	-1167
'.	-1168
▁empty	-1169
Image	-1170
▁containing	-1171
▁ste	-1172
cess	-1173
0.	-1174
▁subse	-1175
▁current	-1176
▁bl	-1177
ze	-1178
▁contin	-1179
▁remain	-1180
air	-1181
▁operations	-1182
ator	-1183
htt	-1184
▁sorted	-1185
▁Re	-1186
2):	-1187
▁How	-1188
ldots	-1189
▁most	-1190
▁exist	-1191
ons	-1192
▁13	-1193
9999	-1194
ove	-1195
)):	-1196
▁over	-1197
▁We	-1198
▁segment	-1199
img	-1200
▁vert	-1201
]",	-1202
▁pi	-1203
▁distinct	-1204
▁--	-1205
▁change	-1206
start	-1207
exec	-1208
▁good	-1209
▁6,	-1210
ither	-1211
▁zero	-1212
NO	-1213
execution	-1214
dots	-1215
*(	-1216
("[	-1217
40	-1218
the	-1219
▁wr	-1220
55	-1221
]$	-1222
qr	-1223
▁br	-1224
sort	-1225
ambda	-1226
be	-1227
▁par	-1228
90	-1229
▁columns	-1230
▁color	-1231
stdin	-1232
▁bin	-1233
▁consists	-1234
▁occ	-1235
▁copy	-1236
2:	-1237
ople	-1238
word	-1239
▁tree	-1240
old	-1241
▁List	-1242
▁column	-1243
▁remove	-1244
1100	-1245
▁always	-1246
+=1	-1247
ank	-1248
ubtask	-1249
▁hel	-1250
▁$0	-1251
▁pairs	-1252
mod	-1253
########	-1254
▁1000	-1255
separated	-1256
▁player	-1257
pond	-1258
ia	-1259
▁[0]	-1260
▁perform	-1261
▁because	-1262
▁matrix	-1263
car	-1264
▁name	-1265
▁turn	-1266
']	-1267
ra	-1268
▁determine	-1269
side	-1270
▁variable	-1271
▁app	-1272
ats	-1273
respond	-1274
▁respect	-1275
sub	-1276
▁except	-1277
▁represent	-1278
ames	-1279
▁Explanation	-1280
add	-1281
isf	-1282
="	-1283
▁colle	-1284
atisf	-1285
▁help	-1286
▁grid	-1287
▁correspond	-1288
0:	-1289
▁Problem	-1290
```	-1291
tex	-1292
▁doesn	-1293
ode	-1294
of	-1295
ste	-1296
▁coordin	-1297
ear	-1298
abel	-1299
(10	-1300
▁path	-1301
](	-1302
▁cond	-1303
▁lowercase	-1304
equal	-1305
▁pass	-1306
erson	-1307
duct	-1308
>>	-1309
▁moves	-1310
ively	-1311
▁score	-1312
++++++++	-1313
49	-1314
▁write	-1315
13	-1316
ption	-1317
allest	-1318
ject	-1319
▁box	-1320
-2	-1321
name	-1322
▁people	-1323
▁multiple	-1324
][0]	-1325
orch	-1326
▁odd	-1327
▁condition	-1328
EG	-1329
▁16	-1330
▁As	-1331
1:	-1332
med	-1333
▁partic	-1334
ied	-1335
▁Let	-1336
▁##	-1337
10100	-1338
epcopy	-1339
xy	-1340
▁either	-1341
▁satisf	-1342
▁correct	-1343
▁op	-1344
▁substring	-1345
▁tf	-1346
▁days	-1347
aces	-1348
▁inter	-1349
cur	-1350
▁takes	-1351
deepcopy	-1352
other	-1353
▁distance	-1354
▁19	-1355
▁returns	-1356
}.	-1357
▁Q	-1358
ets	-1359
▁['	-1360
EGIN	-1361
▁BEGIN	-1362
68	-1363
$).	-1364
▁7,	-1365
imize	-1366
ertex	-1367
fr	-1368
▁sw	-1369
▁flo	-1370
▁math	-1371
1)	-1372
ome	-1373
ider	-1374
ij	-1375
▁digit	-1376
1,2,	-1377
▁[0,	-1378
▁key	-1379
▁continue	-1380
▁respectively	-1381
+=	-1382
['	-1383
np	-1384
})	-1385
100	-1386
▁obt	-1387
▁amount	-1388
gative	-1389
ular	-1390
▁After	-1391
ail	-1392
ulo	-1393
▁could	-1394
loc	-1395
▁cannot	-1396
▁3.	-1397
rence	-1398
▁temp	-1399
vel	-1400
▁conn	-1401
▁abs	-1402
▁spec	-1403
▁program	-1404
▁$4	-1405
andard	-1406
▁dire	-1407
sec	-1408
angle	-1409
clu	-1410
[-1]	-1411
ered	-1412
ensor	-1413
▁needs	-1414
YES	-1415
▁[2,	-1416
▁deci	-1417
2.	-1418
sion	-1419
,,	-1420
lish	-1421
▁now	-1422
quences	-1423
▁=>	-1424
▁torch	-1425
","	-1426
▁exceed	-1427
▁height	-1428
▁Find	-1429
▁work	-1430
▁__	-1431
▁mon	-1432
vi	-1433
www	-1434
▁pres	-1435
▁writ	-1436
▁permutation	-1437
▁cells	-1438
wars	-1439
asing	-1440
76	-1441
arrow	-1442
▁incre	-1443
carp	-1444
▁above	-1445
▁person	-1446
▁used	-1447
▁top	-1448
False	-1449
ark	-1450
ments	-1451
▁fact	-1452
▁team	-1453
▁Miss	-1454
▁First	-1455
▁tri	-1456
ities	-1457
▁graph	-1458
close	-1459
▁main	-1460
assert	-1461
▁</	-1462
▁YES	-1463
▁cre	-1464
learn	-1465
verse	-1466
▁round	-1467
plt	-1468
▁1):	-1469
▁before	-1470
()]	-1471
ially	-1472
uring	-1473
(2,	-1474
▁sy	-1475
▁less	-1476
▁group	-1477
▁vertices	-1478
▁piec	-1479
alind	-1480
:00	-1481
mon	-1482
▁8,	-1483
▁just	-1484
testing	-1485
▁18	-1486
▁50	-1487
▁testcase	-1488
▁ma	-1489
ull	-1490
}{	-1491
^{	-1492
frame	-1493
mn	-1494
dist	-1495
▁otherwise	-1496
times	-1497
python	-1498
▁modulo	-1499
bin	-1500
bers	-1501
ython	-1502
strip	-1503
codewars	-1504
▁very	-1505
▁trans	-1506
rightarrow	-1507
▁buy	-1508
▁rows	-1509
▁]	-1510
▁17	-1511
▁dec	-1512
▁city	-1513
print	-1514
▁here	-1515
▁state	-1516
kl	-1517
size	-1518
▁[1	-1519
ger	-1520
asya	-1521
aN	-1522
ically	-1523
▁required	-1524
▁road	-1525
olycarp	-1526
▁sklearn	-1527
▁sci	-1528
bit	-1529
isible	-1530
sive	-1531
▁vertex	-1532
date	-1533
land	-1534
▁numbered	-1535
▁fe	-1536
graph	-1537
▁ways	-1538
▁30	-1539
iginal	-1540
shape	-1541
▁Standard	-1542
▁means	-1543
ined	-1544
number	-1545
▁about	-1546
ift	-1547
xyz	-1548
cle	-1549
▁Eng	-1550
▁Ch	-1551
ever	-1552
▁her	-1553
ossible	-1554
▁NO	-1555
utes	-1556
▁NaN	-1557
ongest	-1558
▁written	-1559
▁10,	-1560
▁smallest	-1561
78	-1562
▁ac	-1563
▁room	-1564
▁base	-1565
▁decided	-1566
▁Jo	-1567
ele	-1568
vert	-1569
point	-1570
▁describ	-1571
43	-1572
by	-1573
gor	-1574
▁(1,	-1575
▁English	-1576
▁Given	-1577
ches	-1578
▁see	-1579
▁si	-1580
▁25	-1581
▁cho	-1582
▁binary	-1583
,3	-1584
dp	-1585
+1):	-1586
▁adj	-1587
▁mid	-1588
▁what	-1589
pr	-1590
▁$2$	-1591
▁Now	-1592
▁place	-1593
aut	-1594
1,0,	-1595
▁plan	-1596
▁table	-1597
▁weight	-1598
▁students	-1599
3)	-1600
ier	-1601
(10)	-1602
▁loc	-1603
▁fr	-1604
elp	-1605
▁Subtask	-1606
True	-1607
ings	-1608
▁0)	-1609
ique	-1610
▁beg	-1611
▁another	-1612
png	-1613
uck	-1614
▁initial	-1615
3]	-1616
ares	-1617
26.	-1618
rough	-1619
▁Help	-1620
▁description	-1621
rib	-1622
ield	-1623
-01	-1624
▁candies	-1625
arget	-1626
▁queries	-1627
48	-1628
]=	-1629
uv	-1630
▁10000	-1631
ah	-1632
)",	-1633
▁3:	-1634
▁once	-1635
fit	-1636
▁power	-1637
▁stack	-1638
00,	-1639
47	-1640
fig	-1641
▁[3,	-1642
▁rest	-1643
secut	-1644
▁through	-1645
▁ag	-1646
OD	-1647
pre	-1648
▁occur	-1649
day	-1650
▁`[	-1651
▁down	-1652
▁tokens	-1653
▁At	-1654
dict	-1655
ides	-1656
▁exists	-1657
▁}	-1658
▁corresponding	-1659
key	-1660
▁cards	-1661
▁comple	-1662
ke	-1663
flo	-1664
▁off	-1665
value	-1666
abcdef	-1667
▁Wh	-1668
▁quest	-1669
output	-1670
tle	-1671
▁ru	-1672
▁my	-1673
▁don	-1674
uvw	-1675
▁Polycarp	-1676
▁rect	-1677
pat	-1678
][1]	-1679
ones	-1680
▁vis	-1681
let	-1682
▁without	-1683
▁An	-1684
▁node	-1685
▁edges	-1686
▁level	-1687
▁scipy	-1688
+1,	-1689
▁diff	-1690
ghij	-1691
ready	-1692
▁Vasya	-1693
▁show	-1694
▁greater	-1695
icks	-1696
▁To	-1697
qrst	-1698
pop	-1699
[0])	-1700
ghijkl	-1701
idx	-1702
nan	-1703
▁ke	-1704
uvwxyz	-1705
▁separated	-1706
ouse	-1707
▁spe	-1708
hen	-1709
ented	-1710
▁edge	-1711
umerate	-1712
▁already	-1713
<=	-1714
hn	-1715
gs	-1716
1,"	-1717
kata	-1718
ected	-1719
▁product	-1720
mnop	-1721
59	-1722
secutive	-1723
ghijklmnop	-1724
qrstuvwxyz	-1725
▁No	-1726
▁fin	-1727
ror	-1728
ence	-1729
Given	-1730
omes	-1731
lease	-1732
without	-1733
▁sc	-1734
▁step	-1735
ending	-1736
hes	-1737
nums	-1738
ving	-1739
,,0,0,	-1740
▁$5	-1741
ward	-1742
https	-1743
▁ball	-1744
▁process	-1745
▁Ar	-1746
▁On	-1747
▁sele	-1748
▁below	-1749
▁prime	-1750
abcdefghijklmnop	-1751
ink	-1752
▁acc	-1753
▁enumerate	-1754
▁$3$	-1755
▁remaining	-1756
frac	-1757
ives	-1758
ants	-1759
▁Mrs	-1760
rest	-1761
▁-->	-1762
arange	-1763
],[	-1764
▁text	-1765
_**	-1766
▁becomes	-1767
ols	-1768
▁123	-1769
ures	-1770
▁###	-1771
▁quotes	-1772
▁appe	-1773
86	-1774
▁""	-1775
clusive	-1776
())):	-1777
]==	-1778
rome	-1779
▁fourth	-1780
des	-1781
▁und	-1782
▁whether	-1783
▁coordinates	-1784
lib	-1785
ained	-1786
Explanation	-1787
del	-1788
dig	-1789
▁reach	-1790
ooks	-1791
▁Other	-1792
▁allow	-1793
1.	-1794
"))	-1795
▁(2	-1796
09	-1797
2,"	-1798
▁ent	-1799
1[	-1800
cted	-1801
▁rece	-1802
airs	-1803
▁ite	-1804
▁rob	-1805
▁seconds	-1806
▁upper	-1807
▁tensor	-1808
57	-1809
bab	-1810
▁**_	-1811
▁minutes	-1812
▁particip	-1813
▁collections	-1814
▁best	-1815
lambda	-1816
▁subsequence	-1817
cost	-1818
▁build	-1819
▁bit	-1820
▁positions	-1821
alindrome	-1822
=[]	-1823
▁alph	-1824
▁small	-1825
▁equals	-1826
$),	-1827
▁er	-1828
▁sa	-1829
▁dep	-1830
▁10^{	-1831
▁during	-1832
(4	-1833
'],	-1834
▁Alice	-1835
▁However	-1836
inner	-1837
▁original	-1838
▁3)	-1839
plic	-1840
▁And	-1841
▁typ	-1842
▁divis	-1843
****	-1844
ility	-1845
▁give	-1846
!!	-1847
▁que	-1848
▁Here	-1849
▁block	-1850
▁longest	-1851
ory	-1852
▁>>>	-1853
▁rec	-1854
▁99	-1855
olum	-1856
▁But	-1857
▁starting	-1858
▁24	-1859
▁black	-1860
wn	-1861
port	-1862
plotlib	-1863
▁Examples	-1864
▁child	-1865
▁problems	-1866
▁matplotlib	-1867
▁final	-1868
▁token	-1869
▁called	-1870
▁100000000	-1871
acle	-1872
▁pile	-1873
▁were	-1874
▁starts	-1875
avel	-1876
▁got	-1877
fix	-1878
ault	-1879
ature	-1880
▁cook	-1881
▁look	-1882
~~	-1883
sume	-1884
▁coins	-1885
ext	-1886
ual	-1887
+1]	-1888
▁200	-1889
andom	-1890
▁`"	-1891
vers	-1892
▁Bob	-1893
acent	-1894
▁dish	-1895
▁arrays	-1896
▁impossible	-1897
▁inf	-1898
orm	-1899
]`	-1900
valid	-1901
▁Return	-1902
▁consecutive	-1903
▁board	-1904
▁comput	-1905
46	-1906
AA	-1907
▁pattern	-1908
_3	-1909
▁Z	-1910
▁reg	-1911
▁split	-1912
▁optimal	-1913
▁white	-1914
▁long	-1915
▁Otherwise	-1916
cy	-1917
uple	-1918
▁indices	-1919
[2	-1920
ose	-1921
oun	-1922
(2):	-1923
▁true	-1924
matrix	-1925
ico	-1926
oriz	-1927
▁kata	-1928
▁friends	-1929
▁train	-1930
sidered	-1931
▁considered	-1932
sp	-1933
(0)	-1934
ian	-1935
ump	-1936
▁dict	-1937
▁large	-1938
▁When	-1939
anges	-1940
range	-1941
oney	-1942
▁1],	-1943
▁since	-1944
▁[4,	-1945
▁Since	-1946
3.	-1947
ieve	-1948
,1	-1949
ee	-1950
5)	-1951
inning	-1952
▁000	-1953
▁squares	-1954
sign	-1955
ately	-1956
▁side	-1957
▁largest	-1958
dtype	-1959
._	-1960
rees	-1961
▁car	-1962
▁mess	-1963
xx	-1964
▁sort	-1965
▁obtain	-1966
▁student	-1967
]])	-1968
▁9,	-1969
-1):	-1970
▁target	-1971
starting	-1972
▁satisfy	-1973
my	-1974
thod	-1975
thing	-1976
xico	-1977
▁subarray	-1978
abs	-1979
amp	-1980
arch	-1981
▁open	-1982
({	-1983
▁flag	-1984
words	-1985
oper	-1986
save	-1987
xicograph	-1988
([[	-1989
▁year	-1990
▁sever	-1991
▁divisible	-1992
()",	-1993
▁cy	-1994
(1):	-1995
▁random	-1996
empty	-1997
▁cities	-1998
▁Count	-1999
▁found	-2000
mb	-2001
ands	-2002
imil	-2003
▁idx	-2004
▁lead	-2005
.9	-2006
▁python	-2007
2[	-2008
otal	-2009
▁been	-2010
imilar	-2011
▁swap	-2012
▁unique	-2013
alance	-2014
negative	-2015
▁difference	-2016
box	-2017
eded	-2018
pyplot	-2019
▁oracle	-2020
▁replace	-2021
▁several	-2022
AN	-2023
(1)	-2024
▁(2,	-2025
▁^	-2026
trans	-2027
▁-1,	-2028
▁contest	-2029
uch	-2030
54	-2031
cm	-2032
▁among	-2033
abet	-2034
savefig	-2035
No	-2036
▁connected	-2037
isect	-2038
▁back	-2039
ds	-2040
pa	-2041
sequence	-2042
stru	-2043
▁iter	-2044
ca	-2045
hed	-2046
▁adjacent	-2047
oth	-2048
-1])	-2049
tree	-2050
▁sysdef	-2051
▁represented	-2052
56	-2053
dep	-2054
▁ask	-2055
▁label	-2056
▁ph	-2057
▁0],	-2058
▁win	-2059
▁brack	-2060
ush	-2061
▁4.	-2062
▁bel	-2063
ba	-2064
▁cap	-2065
▁10^6	-2066
▁00	-2067
▁run	-2068
▁ser	-2069
vious	-2070
▁What	-2071
▁described	-2072
ify	-2073
▁gets	-2074
▁price	-2075
1111	-2076
11001	-2077
board	-2078
▁Thus	-2079
$;	-2080
ting	-2081
float	-2082
▁"201	-2083
▁area	-2084
83	-2085
▁pow	-2086
:]	-2087
▁bott	-2088
▁vers	-2089
wik	-2090
▁tmp	-2091
▁repe	-2092
ane	-2093
-1][	-2094
ages	-2095
▁convert	-2096
ts	-2097
ific	-2098
▁mark	-2099
▁answers	-2100
▁conditions	-2101
og	-2102
ient	-2103
▁3],	-2104
▁MOD	-2105
isited	-2106
244	-2107
div	-2108
wor	-2109
▁ev	-2110
▁money	-2111
duce	-2112
[1])	-2113
http	-2114
▁curr	-2115
gorith	-2116
▁23	-2117
na	-2118
ght	-2119
play	-2120
▁ret	-2121
group	-2122
▁ach	-2123
2}	-2124
20,	-2125
▁21	-2126
seed	-2127
▁sl	-2128
zero	-2129
▁moment	-2130
%2	-2131
io	-2132
[::	-2133
cnt	-2134
▁$4$	-2135
ilter	-2136
dec	-2137
ken	-2138
temp	-2139
▁bus	-2140
▁red	-2141
osen	-2142
▁lst	-2143
colum	-2144
▁lambda	-2145
▁{}	-2146
▁pict	-2147
▁object	-2148
ls	-2149
▁made	-2150
▁again	-2151
sib	-2152
aced	-2153
▁act	-2154
▁beaut	-2155
▁question	-2156
/1	-2157
gum	-2158
▁Yes	-2159
▁house	-2160
▁decimal	-2161
,4	-2162
ana	-2163
here	-2164
▁ter	-2165
▁allowed	-2166
▁high	-2167
no	-2168
▁stop	-2169
▁going	-2170
▁match	-2171
21,	-2172
27.	-2173
▁''	-2174
▁(0	-2175
aving	-2176
▁players	-2177
▁under	-2178
▁special	-2179
els	-2180
idth	-2181
▁(0,	-2182
alk	-2183
▁2]	-2184
imit	-2185
1011001	-2186
▁spaces	-2187
▁visit	-2188
af	-2189
▁create	-2190
10110100	-2191
='	-2192
▁method	-2193
▁sequences	-2194
101100110100	-2195
97	-2196
▁queue	-2197
▁segments	-2198
^2	-2199
▁mem	-2200
zz	-2201
▁'1	-2202
▁chosen	-2203
++++++++++++++++	-2204
ner	-2205
▁lengths	-2206
(*	-2207
BB	-2208
way	-2209
▁'.	-2210
order	-2211
▁axis	-2212
▁denotes	-2213
################	-2214
▁De	-2215
<<	-2216
▁п	-2217
1,3,"	-2218
▁Task	-2219
math	-2220
▁reverse	-2221
5-0	-2222
▁`1	-2223
▁fig	-2224
image	-2225
▁algorith	-2226
▁consider	-2227
▁resulting	-2228
▁lexicograph	-2229
▁lit	-2230
▁floor	-2231
pp	-2232
[2]	-2233
eros	-2234
aking	-2235
▁hour	-2236
ont	-2237
most	-2238
▁eat	-2239
04	-2240
05	-2241
man	-2242
▁cut	-2243
▁pieces	-2244
▁"1	-2245
▁im	-2246
▁man	-2247
▁types	-2248
numbers	-2249
94	-2250
200	-2251
atch	-2252
find	-2253
▁those	-2254
▁colors	-2255
▁John	-2256
▁alphabet	-2257
▁increase	-2258
.4	-2259
bb	-2260
▁sign	-2261
▁wins	-2262
▁achieve	-2263
aten	-2264
▁call	-2265
from	-2266
oups	-2267
▁argum	-2268
▁interest	-2269
▁constraints	-2270
//2	-2271
stem	-2272
wh	-2273
Yes	-2274
resh	-2275
▁mag	-2276
total	-2277
▁comm	-2278
▁maximize	-2279
▁beginning	-2280
10^9	-2281
ster	-2282
values	-2283
▁complete	-2284
▁inputs	-2285
25,	-2286
▁1$	-2287
▁assign	-2288
63	-2289
comp	-2290
stance	-2291
iam	-2292
new	-2293
ighb	-2294
imens	-2295
▁distrib	-2296
inite	-2297
olute	-2298
▁default	-2299
▁receive	-2300
▁representing	-2301
Re	-2302
appy	-2303
ips	-2304
▁'0	-2305
There	-2306
▁poly	-2307
61	-2308
angu	-2309
axis	-2310
▁had	-2311
▁travel	-2312
fl	-2313
raw	-2314
flow	-2315
open	-2316
▁One	-2317
▁steps	-2318
ug	-2319
ffic	-2320
ress	-2321
▁hold	-2322
▁being	-2323
▁month	-2324
▁needed	-2325
▁parent	-2326
dif	-2327
ashi	-2328
stat	-2329
▁Please	-2330
▁assume	-2331
▁expres	-2332
▁statement	-2333
▁piece	-2334
▁minimal	-2335
mer	-2336
▁("	-2337
▁eas	-2338
▁rel	-2339
cores	-2340
▁decre	-2341
▁simple	-2342
▁results	-2343
tack	-2344
▁Also	-2345
▁stones	-2346
"`	-2347
-=1	-2348
▁26	-2349
▁7.	-2350
▁Num	-2351
▁robot	-2352
▁select	-2353
}$.	-2354
▁That	-2355
▁visited	-2356
▁algorithm	-2357
ov	-2358
▁hand	-2359
▁enough	-2360
2*	-2361
>=	-2362
tring	-2363
▁ord	-2364
6-0	-2365
label	-2366
▁probab	-2367
58	-2368
1,1,"	-2369
▁blue	-2370
▁jump	-2371
▁palindrome	-2372
OR	-2373
▁],	-2374
▁real	-2375
▁knows	-2376
▁arrange	-2377
mid	-2378
▁Next	-2379
▁goes	-2380
▁heap	-2381
▁note	-2382
ness	-2383
▁too	-2384
▁able	-2385
▁cent	-2386
▁mean	-2387
▁direction	-2388
73	-2389
98	-2390
AB	-2391
Co	-2392
cum	-2393
▁$6	-2394
uous	-2395
▁say	-2396
ights	-2397
▁bottom	-2398
▁low	-2399
=(	-2400
▁av	-2401
char	-2402
▁cir	-2403
▁rot	-2404
ustom	-2405
▁$[1,	-2406
▁well	-2407
formation	-2408
----------------	-2409
ale	-2410
ourse	-2411
stead	-2412
▁prev	-2413
▁root	-2414
▁false	-2415
onsider	-2416
inte	-2417
randint	-2418
▁connect	-2419
ily	-2420
ming	-2421
▁Constraints	-2422
);	-2423
aur	-2424
▁happ	-2425
▁examples	-2426
▁initially	-2427
aper	-2428
▁won	-2429
ahashi	-2430
cs	-2431
log	-2432
uff	-2433
▁obtained	-2434
.5,	-2435
org	-2436
ross	-2437
stant	-2438
▁increasing	-2439
digit	-2440
▁They	-2441
▁minimize	-2442
13,	-2443
▁Init	-2444
verage	-2445
▁nodes	-2446
▁stand	-2447
4-	-2448
node	-2449
▁inv	-2450
1}	-2451
▁5.	-2452
clud	-2453
omin	-2454
▁___	-2455
4]	-2456
=2	-2457
tt	-2458
4567	-2459
[0],	-2460
▁del	-2461
▁field	-2462
/2	-2463
qrt	-2464
▁Un	-2465
▁She	-2466
akahashi	-2467
▁located	-2468
▁coordinate	-2469
wer	-2470
▁nec	-2471
atures	-2472
ording	-2473
▁speed	-2474
▁10^5$)	-2475
08	-2476
▁((	-2477
▁*=	-2478
▁log	-2479
▁More	-2480
points	-2481
▁10^5$	-2482
▁water	-2483
▁0]	-2484
▁equ	-2485
▁lik	-2486
▁met	-2487
aster	-2488
▁deg	-2489
▁unt	-2490
11,	-2491
▁di	-2492
==0:	-2493
agon	-2494
▁pas	-2495
▁common	-2496
▁absolute	-2497
ams	-2498
(-1)	-2499
token	-2500
fect	-2501
▁extr	-2502
▁represents	-2503
Th	-2504
ton	-2505
fact	-2506
action	-2507
8,,	-2508
▁с	-2509
arl	-2510
lst	-2511
▁exp	-2512
lower	-2513
sibly	-2514
▁goal	-2515
ortest	-2516
▁belong	-2517
▁bisect	-2518
▁present	-2519
ought	-2520
work	-2521
▁==>	-2522
▁Pet	-2523
▁paint	-2524
▁testcases	-2525
▁still	-2526
▁picture	-2527
то	-2528
10,	-2529
alue	-2530
▁date	-2531
▁system	-2532
sk	-2533
ST	-2534
bs	-2535
Sum	-2536
([1,	-2537
▁shown	-2538
▁д	-2539
▁custom	-2540
▁parame	-2541
▁inclusive	-2542
ны	-2543
'])	-2544
▁cub	-2545
▁names	-2546
(),	-2547
ids	-2548
▁[5,	-2549
▁file	-2550
▁×	-2551
▁в	-2552
2,3,	-2553
▁ends	-2554
▁whose	-2555
2],	-2556
inf	-2557
orn	-2558
atin	-2559
▁big	-2560
sorted	-2561
allclose	-2562
1],	-2563
▁-1.	-2564
pairs	-2565
▁tuple	-2566
bl	-2567
rd	-2568
pose	-2569
iness	-2570
▁strict	-2571
▁message	-2572
▁Initially	-2573
.7	-2574
??	-2575
999	-2576
▁40	-2577
▁tokenize	-2578
Ar	-2579
▁Se	-2580
▁hig	-2581
▁dest	-2582
▁much	-2583
▁4)	-2584
ances	-2585
ather	-2586
tight	-2587
▁apply	-2588
▁subset	-2589
▁rectangle	-2590
+7	-2591
alf	-2592
ills	-2593
▁mar	-2594
▁bbox	-2595
inches	-2596
columns	-2597
▁become	-2598
gy	-2599
23,	-2600
gcd	-2601
▁pay	-2602
▁"""#	-2603
▁neighb	-2604
(3,	-2605
rary	-2606
-01-0	-2607
angles	-2608
▁spend	-2609
▁prefix	-2610
datetime	-2611
ital	-2612
▁sold	-2613
▁trip	-2614
▁interse	-2615
4)	-2616
AR	-2617
XX	-2618
]+	-2619
▁cr	-2620
stack	-2621
format	-2622
▁tests	-2623
cmds	-2624
olve	-2625
ouble	-2626
score	-2627
▁shift	-2628
▁defined	-2629
\,	-2630
26,	-2631
cho	-2632
25,,	-2633
▁boxes	-2634
▁previous	-2635
3:	-2636
123	-2637
▁groups	-2638
▁having	-2639
▁dataframe	-2640
▁$0$	-2641
▁pack	-2642
▁until	-2643
cal	-2644
ently	-2645
▁tell	-2646
cending	-2647
▁defaultdict	-2648
▁('	-2649
▁....	-2650
▁roads	-2651
Subtask	-2652
▁factor	-2653
од	-2654
mem	-2655
▁mx	-2656
▁sets	-2657
▁error	-2658
▁course	-2659
▁home	-2660
▁necess	-2661
ade	-2662
▁3]	-2663
▁60	-2664
",".	-2665
▁book	-2666
▁coin	-2667
▁item	-2668
▁1),	-2669
▁Will	-2670
▁asked	-2671
▁float	-2672
tf	-2673
▁come	-2674
▁luck	-2675
0,0,0,	-2676
▁Can	-2677
▁balls	-2678
▁looks	-2679
▁sides	-2680
▁Consider	-2681
8.	-2682
EX	-2683
dle	-2684
ics	-2685
asha	-2686
iped	-2687
▁(3,	-2688
▁ones	-2689
▁playing	-2690
▁negative	-2691
▁strictly	-2692
cript	-2693
▁rules	-2694
br	-2695
но	-2696
____	-2697
▁0.0	-2698
▁11,	-2699
▁dele	-2700
+2	-2701
CA	-2702
ka	-2703
ype	-2704
▁AN	-2705
None	-2706
▁chef	-2707
▁mask	-2708
▁langu	-2709
▁turns	-2710
▁Counter	-2711
▁smaller	-2712
32	-2713
PC	-2714
sm	-2715
▁')	-2716
▁vow	-2717
[::-1]	-2718
▁likes	-2719
▁leading	-2720
IT	-2721
good	-2722
▁gcd	-2723
▁job	-2724
▁changes	-2725
▁instead	-2726
]))	-2727
pow	-2728
▁bracket	-2729
ron	-2730
▁did	-2731
lls	-2732
tic	-2733
▁1}	-2734
even	-2735
]-	-2736
ew	-2737
itions	-2738
▁Petya	-2739
▁interval	-2740
▁triangle	-2741
96	-2742
pi	-2743
2,,	-2744
3],	-2745
▁($0	-2746
▁($2	-2747
▁zip	-2748
▁optim	-2749
▁width	-2750
▁minute	-2751
0],	-2752
iod	-2753
tes	-2754
prime	-2755
depend	-2756
cept	-2757
▁$(1,	-2758
▁kind	-2759
imension	-2760
353	-2761
▁fre	-2762
▁$1$,	-2763
▁units	-2764
▁balance	-2765
ized	-2766
▁bar	-2767
cluding	-2768
▁blocks	-2769
transform	-2770
ek	-2771
000,	-2772
ears	-2773
▁keep	-2774
▁skip	-2775
▁denote	-2776
28.	-2777
▁1))	-2778
00000	-2779
▁2014	-2780
formed	-2781
rences	-2782
▁appear	-2783
als	-2784
sys	-2785
▁-1):	-2786
▁expression	-2787
▁information	-2788
[0][	-2789
▁shape	-2790
▁probability	-2791
)%	-2792
0,2,"	-2793
ified	-2794
▁10^4	-2795
▁Kata	-2796
▁walk	-2797
▁along	-2798
▁shortest	-2799
▁cle	-2800
struct	-2801
Subtasks	-2802
▁representation	-2803
---	-2804
1):	-2805
Num	-2806
▁Ber	-2807
inter	-2808
▁pick	-2809
▁sect	-2810
filter	-2811
▁infinite	-2812
quare	-2813
50,	-2814
neq	-2815
▁22	-2816
iful	-2817
▁2013	-2818
▁rank	-2819
▁whole	-2820
▁station	-2821
6:	-2822
az	-2823
▁4:	-2824
▁Sh	-2825
▁star	-2826
000000	-2827
02	-2828
]*	-2829
▁ident	-2830
mplement	-2831
▁version	-2832
(3	-2833
LL	-2834
izz	-2835
▁1≤	-2836
ored	-2837
▁sit	-2838
moves	-2839
▁bits	-2840
▁tile	-2841
▁deque	-2842
▁attack	-2843
▁rating	-2844
▁independ	-2845
nu	-2846
▁`0	-2847
▁conc	-2848
minimum	-2849
07	-2850
(42)	-2851
init	-2852
last	-2853
ful	-2854
▁'!	-2855
▁direct	-2856
99999999	-2857
operations	-2858
=[0]	-2859
▁10**	-2860
▁according	-2861
▁$5$	-2862
▁repl	-2863
▁solutions	-2864
We	-2865
plus	-2866
▁hard	-2867
ipedia	-2868
▁items	-2869
▁compute	-2870
aba	-2871
▁sen	-2872
first	-2873
▁Latin	-2874
▁arbit	-2875
ER	-2876
▁Ed	-2877
▁Le	-2878
▁500	-2879
tools	-2880
▁gives	-2881
-2,	-2882
ding	-2883
gers	-2884
ifier	-2885
olumn	-2886
oring	-2887
▁symb	-2888
▁stdin	-2889
possibly	-2890
7.7	-2891
▁1-	-2892
▁gir	-2893
▁cert	-2894
▁candy	-2895
▁chooses	-2896
▁substrings	-2897
2-	-2898
(2)	-2899
▁2],	-2900
1,2,"	-2901
▁itertools	-2902
▁permutations	-2903
cr	-2904
grid	-2905
▁0):	-2906
▁emp	-2907
▁sns	-2908
▁parts	-2909
▁within	-2910
53	-2911
({'	-2912
-1:	-2913
109	-2914
aps	-2915
▁tw	-2916
anana	-2917
uplic	-2918
▁Some	-2919
456789	-2920
▁William	-2921
41	-2922
111	-2923
[1:	-2924
lex	-2925
und	-2926
▁5)	-2927
rows	-2928
▁chess	-2929
▁chocol	-2930
loy	-2931
[1],	-2932
▁bool	-2933
▁uppercase	-2934
omb	-2935
rid	-2936
▁8.	-2937
▁sn	-2938
▁load	-2939
▁simp	-2940
▁green	-2941
▁trying	-2942
06	-2943
349	-2944
998	-2945
non	-2946
seq	-2947
▁our	-2948
AX	-2949
IO	-2950
▁45	-2951
▁6.	-2952
less	-2953
▁head	-2954
▁close	-2955
▁heapq	-2956
▁restaur	-2957
SC	-2958
odd	-2959
▁Co	-2960
Chef	-2961
▁tick	-2962
ression	-2963
uration	-2964
▁itself	-2965
▁counter	-2966
91	-2967
=4	-2968
▁$|	-2969
List	-2970
medi	-2971
▁12,	-2972
ually	-2973
where	-2974
▁combin	-2975
distance	-2976
▁Takahashi	-2977
PL	-2978
li	-2979
anks	-2980
▁decrease	-2981
▁subsequences	-2982
[:,	-2983
iguous	-2984
▁figure	-2985
.5,,	-2986
▁draw	-2987
▁full	-2988
▁company	-2989
MM	-2990
ny	-2991
uth	-2992
▁..	-2993
tend	-2994
▁100,	-2995
▁Form	-2996
▁five	-2997
versed	-2998
▁particular	-2999
31,	-3000
van	-3001
▁#1	-3002
▁[0	-3003
aves	-3004
gg	-3005
33,	-3006
895	-3007
base	-3008
hest	-3009
▁1][	-3010
▁winner	-3011
AT	-3012
==0	-3013
lay	-3014
ved	-3015
▁4]	-3016
olume	-3017
▁easy	-3018
▁inside	-3019
5]	-3020
▁ok	-3021
next	-3022
▁own	-3023
ortun	-3024
osing	-3025
▁half	-3026
▁addition	-3027
▁children	-3028
/5	-3029
CD	-3030
000$	-3031
izes	-3032
▁100$	-3033
▁100)	-3034
▁clock	-3035
▁costs	-3036
▁perfect	-3037
▁Be	-3038
▁sup	-3039
icult	-3040
▁stre	-3041
▁hours	-3042
▁might	-3043
▁teams	-3044
▁%=	-3045
▁Is	-3046
▁arri	-3047
▁divide	-3048
▁finish	-3049
.6	-3050
▁-2	-3051
+1)]	-3052
card	-3053
0,1,"	-3054
remove	-3055
▁Every	-3056
▁similar	-3057
▁participants	-3058
-8	-3059
_4	-3060
▁→	-3061
▁"0	-3062
▁$1$.	-3063
▁free	-3064
▁shop	-3065
alth	-3066
ious	-3067
color	-3068
▁passed	-3069
▁appears	-3070
root	-3071
redict	-3072
▁shows	-3073
ha	-3074
2-1	-3075
...,	-3076
change	-3077
▁paper	-3078
ova	-3079
rop	-3080
▁35	-3081
▁AB	-3082
▁dr	-3083
bles	-3084
▁dfs	-3085
ithme	-3086
rength	-3087
▁model	-3088
groupby	-3089
2-0	-3090
▁li	-3091
Date	-3092
ared	-3093
cent	-3094
▁Two	-3095
▁came	-3096
▁fill	-3097
▁never	-3098
▁zeros	-3099
instance	-3100
acci	-3101
aken	-3102
imak	-3103
▁med	-3104
▁six	-3105
train	-3106
▁numer	-3107
▁employ	-3108
81	-3109
Max	-3110
▁~~	-3111
lass	-3112
over	-3113
allen	-3114
▁scores	-3115
)*	-3116
bf	-3117
{}	-3118
)$.	-3119
ima	-3120
two	-3121
▁ST	-3122
ning	-3123
▁$\{	-3124
▁bad	-3125
▁cup	-3126
upper	-3127
▁asks	-3128
arrange	-3129
▁profit	-3130
▁weights	-3131
path	-3132
sqrt	-3133
▁20,	-3134
▁5],	-3135
▁2015-0	-3136
▁apples	-3137
▁duplic	-3138
▁arbitrary	-3139
GG	-3140
SE	-3141
ho	-3142
на	-3143
83,	-3144
▁jo	-3145
10^5	-3146
",".",".	-3147
▁Formally	-3148
▁standing	-3149
(2	-3150
RR	-3151
ро	-3152
pon	-3153
▁<<	-3154
nuke	-3155
▁$10	-3156
▁makes	-3157
arg	-3158
lic	-3159
▁90	-3160
▁1])	-3161
iving	-3162
onacci	-3163
."	-3164
▁"\	-3165
ains	-3166
oted	-3167
▁'''	-3168
▁10)	-3169
▁Con	-3170
▁lot	-3171
▁middle	-3172
▁placed	-3173
▁series	-3174
▁average	-3175
▁[(	-3176
▁miss	-3177
▁user	-3178
permut	-3179
cor	-3180
▁io	-3181
erge	-3182
▁unit	-3183
gether	-3184
▁tensorflow	-3185
->	-3186
**2	-3187
▁36	-3188
(10,	-3189
==1:	-3190
ided	-3191
▁109	-3192
▁fif	-3193
▁meet	-3194
parent	-3195
▁world	-3196
▁Python	-3197
▁collect	-3198
gn	-3199
29.	-3200
]],	-3201
ava	-3202
tup	-3203
▁2*	-3204
wiki	-3205
after	-3206
pattern	-3207
fficient	-3208
▁monster	-3209
mm	-3210
"])	-3211
cry	-3212
fer	-3213
oss	-3214
reg	-3215
▁Do	-3216
▁111	-3217
▁fav	-3218
▁suit	-3219
▁certain	-3220
':'	-3221
den	-3222
iew	-3223
ные	-3224
▁vect	-3225
▁separ	-3226
ithmetic	-3227
)-	-3228
CC	-3229
Ch	-3230
"].	-3231
345	-3232
ath	-3233
▁Ex	-3234
▁~~~	-3235
model	-3236
▁seen	-3237
▁extra	-3238
▁loves	-3239
▁button	-3240
▁occurs	-3241
▁followed	-3242
`-	-3243
cat	-3244
roy	-3245
▁105	-3246
2,0,0,	-3247
▁twice	-3248
▁isinstance	-3249
abb	-3250
▁Ste	-3251
ivers	-3252
▁wall	-3253
000.0,	-3254
uation	-3255
▁10^9$)	-3256
▁period	-3257
wikipedia	-3258
By	-3259
do	-3260
__(	-3261
▁pop	-3262
atase	-3263
dered	-3264
lines	-3265
forces	-3266
▁indic	-3267
▁Determine	-3268
12,	-3269
atur	-3270
mean	-3271
▁-0.	-3272
▁[1]	-3273
▁2000	-3274
▁done	-3275
▁wond	-3276
1,0,0,	-3277
▁horiz	-3278
ference	-3279
aw	-3280
fun	-3281
▁{'	-3282
▁120	-3283
ators	-3284
tence	-3285
▁doll	-3286
▁flow	-3287
ef	-3288
▁27	-3289
▁Or	-3290
10**	-3291
▁exam	-3292
anging	-3293
▁avail	-3294
▁immedi	-3295
uit	-3296
0,1,	-3297
▁loo	-3298
rtype	-3299
▁Alex	-3300
▁Test	-3301
▁sure	-3302
▁known	-3303
reverse	-3304
▁together	-3305
93	-3306
OO	-3307
[-	-3308
bu	-3309
)),	-3310
leg	-3311
▁isn	-3312
omial	-3313
▁cross	-3314
▁circle	-3315
em	-3316
'].	-3317
]):	-3318
ock	-3319
arri	-3320
arse	-3321
oplus	-3322
orizer	-3323
▁taken	-3324
▁really	-3325
▁search	-3326
alindrom	-3327
▁concaten	-3328
▁independent	-3329
1",	-3330
110	-3331
tri	-3332
utf	-3333
iers	-3334
itch	-3335
show	-3336
▁net	-3337
apple	-3338
ouses	-3339
ainted	-3340
▁limit	-3341
▁better	-3342
▁divided	-3343
[(	-3344
28,	-3345
]$.	-3346
ait	-3347
▁34	-3348
+1][	-3349
▁fix	-3350
▁pur	-3351
▁10^9)	-3352
ortunately	-3353
101101001100	-3354
1011001101001100	-3355
(5	-3356
ан	-3357
▁к	-3358
99,	-3359
▁$7	-3360
dout	-3361
part	-3362
▁''.	-3363
.05,,	-3364
econd	-3365
ision	-3366
▁tasks	-3367
possible	-3368
▁strength	-3369
▁beautiful	-3370
▁1000000000	-3371
27,	-3372
5-1	-3373
joy	-3374
▁-3	-3375
mask	-3376
▁gift	-3377
▁stone	-3378
▁formed	-3379
▁places	-3380
▁removed	-3381
1=	-3382
ер	-3383
ched	-3384
tens	-3385
▁'0'	-3386
▁13,	-3387
Count	-3388
acher	-3389
agonal	-3390
▁works	-3391
▁argument	-3392
▁restaurant	-3393
ta	-3394
][1	-3395
gon	-3396
ram	-3397
ser	-3398
arry	-3399
▁-1:	-3400
▁100$)	-3401
reshape	-3402
▁Master	-3403
▁String	-3404
▁started	-3405
▁divisors	-3406
adi	-3407
ina	-3408
}$,	-3409
▁28	-3410
-1],	-3411
▁0.5	-3412
▁$2$,	-3413
▁Code	-3414
▁comes	-3415
▁rooms	-3416
▁years	-3417
strings	-3418
▁sparse	-3419
▁Therefore	-3420
▁difficult	-3421
▁remainder	-3422
ney	-3423
▁Good	-3424
▁Vova	-3425
5,0,0,	-3426
▁happy	-3427
angular	-3428
▁delete	-3429
Le	-3430
▁≠	-3431
22,	-3432
▁#2	-3433
▁2·	-3434
▁dtype	-3435
▁piles	-3436
▁moving	-3437
ANA	-3438
]),	-3439
clf	-3440
ese	-3441
ilt	-3442
atest	-3443
encode	-3444
▁lists	-3445
▁transform	-3446
3$	-3447
▁?	-3448
2",	-3449
21.	-3450
▁80	-3451
▁ho	-3452
mult	-3453
▁300	-3454
▁abc	-3455
▁cat	-3456
night	-3457
▁fifth	-3458
reasing	-3459
▁beauty	-3460
▁programming	-3461
71	-3462
-1$	-3463
ato	-3464
itle	-3465
▁eval	-3466
▁candid	-3467
105	-3468
14.	-3469
items	-3470
randn	-3471
▁Limak	-3472
▁insert	-3473
▁primes	-3474
▁ascending	-3475
5-	-3476
Er	-3477
17,	-3478
+1))	-3479
▁$(1	-3480
▁added	-3481
▁2014-0	-3482
▁reduce	-3483
,5	-3484
ja	-3485
265	-3486
▁$8	-3487
true	-3488
▁htt	-3489
arrays	-3490
▁display	-3491
▁language	-3492
'),	-3493
son	-3494
game	-3495
iver	-3496
▁//=	-3497
▁sur	-3498
solve	-3499
wards	-3500
▁king	-3501
▁image	-3502
▁learn	-3503
product	-3504
.)	-3505
AC	-3506
nce	-3507
▁IN	-3508
pert	-3509
PLANA	-3510
PLANATION	-3511
▁optimally	-3512
▁participant	-3513
dt	-3514
sa	-3515
14,	-3516
=1)	-3517
opt	-3518
1010	-3519
Time	-3520
▁{1,	-3521
▁scho	-3522
▁multi	-3523
▁available	-3524
▁satisfied	-3525
▁subarrays	-3526
30,	-3527
ball	-3528
▁2),	-3529
▁fit	-3530
▁plane	-3531
▁desired	-3532
▁teacher	-3533
▁questions	-3534
▁intersection	-3535
+3	-3536
22.	-3537
▁\{	-3538
```,	-3539
diff	-3540
▁suc	-3541
ellow	-3542
▁$0$.	-3543
▁none	-3544
▁prin	-3545
▁Hence	-3546
▁books	-3547
▁cycle	-3548
▁marks	-3549
process	-3550
▁painted	-3551
▁underst	-3552
$$	-3553
(-	-3554
IL	-3555
Pr	-3556
▁«	-3557
■■	-3558
▁few	-3559
Error	-3560
uster	-3561
▁gues	-3562
▁games	-3563
inclusive	-3564
EXPLANATION	-3565
_0	-3566
This	-3567
aler	-3568
alph	-3569
▁10^5)	-3570
▁depth	-3571
▁track	-3572
▁volume	-3573
▁capital	-3574
▁stations	-3575
6)	-3576
("\	-3577
limit	-3578
peline	-3579
▁bought	-3580
▁little	-3581
▁repeated	-3582
▁selected	-3583
II	-3584
ет	-3585
Pro	-3586
4321	-3587
▁reac	-3588
▁wind	-3589
244353	-3590
▁Snuke	-3591
▁remem	-3592
▁leaves	-3593
▁arguments	-3594
▁interesting	-3595
.,	-3596
7)	-3597
▁@	-3598
ann	-3599
inv	-3600
pot	-3601
▁2-	-3602
▁By	-3603
▁Gr	-3604
▁aa	-3605
aaaa	-3606
hing	-3607
miss	-3608
▁$6$	-3609
▁[0.	-3610
▁away	-3611
▁sell	-3612
▁doing	-3613
▁corresponds	-3614
$1	-3615
)+	-3616
——	-3617
off	-3618
▁Am	-3619
3,4,	-3620
====	-3621
▁4],	-3622
Value	-3623
state	-3624
▁$(2,	-3625
labels	-3626
▁inclu	-3627
▁leave	-3628
▁matter	-3629
▁maximal	-3630
uel	-3631
win	-3632
▁Ai	-3633
▁10.	-3634
Array	-3635
▁$[2,	-3636
▁bank	-3637
8,0,0,	-3638
Column	-3639
▁party	-3640
▁trees	-3641
▁altern	-3642
▁compet	-3643
▁larger	-3644
▁temper	-3645
▁changed	-3646
AM	-3647
arm	-3648
▁33	-3649
rank	-3650
▁1).	-3651
▁101	-3652
▁Any	-3653
check	-3654
vered	-3655
▁000)	-3656
Tensor	-3657
▁around	-3658
▁please	-3659
operator	-3660
▁subsegment	-3661
FF	-3662
anc	-3663
ody	-3664
ret	-3665
rew	-3666
▁2^	-3667
that	-3668
▁yen	-3669
arily	-3670
colle	-3671
ffect	-3672
tered	-3673
▁[[1,	-3674
▁stat	-3675
▁think	-3676
▁zeroes	-3677
▁vertical	-3678
idf	-3679
▁5]	-3680
▁MM	-3681
come	-3682
▁ang	-3683
▁lay	-3684
▁tot	-3685
aborn	-3686
▁keys	-3687
▁page	-3688
▁counts	-3689
▁seaborn	-3690
Al	-3691
25.	-3692
mit	-3693
▁29	-3694
ceil	-3695
ests	-3696
▁seq	-3697
▁uses	-3698
▁10^9$	-3699
▁accept	-3700
▁houses	-3701
▁labels	-3702
▁relative	-3703
51	-3704
▁[[]	-3705
▁sim	-3706
names	-3707
▁----	-3708
▁Dima	-3709
▁Ivan	-3710
▁light	-3711
▁sticks	-3712
▁challen	-3713
▁something	-3714
ris	-3715
_1$,	-3716
pair	-3717
▁Sum	-3718
▁inp	-3719
ients	-3720
6,0,0,	-3721
8.05,,	-3722
▁passen	-3723
03	-3724
llo	-3725
anya	-3726
days	-3727
pare	-3728
▁bag	-3729
▁operator	-3730
decreasing	-3731
fortunately	-3732
▁contiguous	-3733
Of	-3734
▁и	-3735
_2$	-3736
uzz	-3737
▁".	-3738
▁(3	-3739
cise	-3740
ends	-3741
item	-3742
▁15,	-3743
▁comb	-3744
▁appro	-3745
▁front	-3746
ination	-3747
▁record	-3748
▁partition	-3749
TT	-3750
29,	-3751
▁`'	-3752
igin	-3753
rain	-3754
tract	-3755
▁store	-3756
▁corner	-3757
▁Berland	-3758
▁immediately	-3759
ст	-3760
60,	-3761
skip	-3762
▁old	-3763
gression	-3764
▁necessary	-3765
▁satisfies	-3766
sl	-3767
').	-3768
ART	-3769
ows	-3770
▁")	-3771
▁31	-3772
▁39	-3773
▁mn	-3774
3333	-3775
area	-3776
iding	-3777
tesIO	-3778
▁magic	-3779
▁2016-0	-3780
▁Number	-3781
▁destroy	-3782
▁satisfying	-3783
15.	-3784
45,	-3785
78,	-3786
▁42	-3787
tick	-3788
▁110	-3789
▁suff	-3790
banana	-3791
winner	-3792
iversity	-3793
▁returned	-3794
imensional	-3795
75,	-3796
Col	-3797
_1$	-3798
▁\\	-3799
▁py	-3800
")))	-3801
cand	-3802
curr	-3803
keys	-3804
tent	-3805
▁bur	-3806
▁term	-3807
▁These	-3808
▁Second	-3809
▁center	-3810
▁reversed	-3811
ii	-3812
nn	-3813
rm	-3814
34,	-3815
sing	-3816
▁cit	-3817
▁ith	-3818
false	-3819
▁$[3,	-3820
ionary	-3821
▁occup	-3822
▁tried	-3823
▁choice	-3824
▁require	-3825
▁working	-3826
▁construct	-3827
▁arithmetic	-3828
-2)	-3829
abe	-3830
bar	-3831
▁dy	-3832
best	-3833
iloc	-3834
▁Che	-3835
▁bro	-3836
▁prices	-3837
▁divisor	-3838
▁highest	-3839
▁describe	-3840
3}	-3841
bc	-3842
gca	-3843
▁Of	-3844
▁Max	-3845
▁bul	-3846
▁cast	-3847
▁door	-3848
▁thus	-3849
▁week	-3850
▁2013-0	-3851
▁encode	-3852
********	-3853
constant	-3854
tokenize	-3855
▁propert	-3856
▁performed	-3857
▁parameters	-3858
Ex	-3859
{1	-3860
▁ge	-3861
▁tre	-3862
▁Char	-3863
▁cake	-3864
digits	-3865
▁paths	-3866
▁sizes	-3867
ibonacci	-3868
▁received	-3869
EF	-3870
ол	-3871
229	-3872
ady	-3873
lim	-3874
""",	-3875
")).	-3876
3470	-3877
[0].	-3878
ires	-3879
▁bat	-3880
ontal	-3881
under	-3882
▁flip	-3883
cation	-3884
▁START	-3885
▁decode	-3886
smallest	-3887
2(	-3888
32)	-3889
oto	-3890
▁Ge	-3891
body	-3892
year	-3893
▁[7,	-3894
level	-3895
▁girl	-3896
▁wait	-3897
▁apple	-3898
▁domin	-3899
▁others	-3900
▁country	-3901
▁distribute	-3902
!"	-3903
)`	-3904
7:	-3905
mx	-3906
323	-3907
For	-3908
ped	-3909
top	-3910
ход	-3911
▁Pi	-3912
enry	-3913
inks	-3914
redu	-3915
ries	-3916
user	-3917
▁'1'	-3918
ounds	-3919
▁remo	-3920
▁regular	-3921
▁multiply	-3922
-1}	-3923
16.	-3924
`-`	-3925
4-24	-3926
▁1)]	-3927
floor	-3928
ource	-3929
▁deck	-3930
7.75,,	-3931
String	-3932
▁fight	-3933
▁super	-3934
▁making	-3935
▁school	-3936
▁degrees	-3937
operatorname	-3938
)$,	-3939
223	-3940
350	-3941
500	-3942
▁='	-3943
▁El	-3944
▁mi	-3945
▁1.0	-3946
▁ide	-3947
alent	-3948
sters	-3949
▁Step	-3950
▁health	-3951
▁meters	-3952
▁created	-3953
▁network	-3954
▁brackets	-3955
▁currently	-3956
▁rectangular	-3957
hi	-3958
tc	-3959
ел	-3960
tmp	-3961
▁(`	-3962
▁Rob	-3963
illed	-3964
price	-3965
write	-3966
▁expl	-3967
▁mode	-3968
▁song	-3969
prefix	-3970
rstrip	-3971
target	-3972
BytesIO	-3973
▁sentence	-3974
3-	-3975
PP	-3976
ae	-3977
oot	-3978
13,,	-3979
velo	-3980
zeros	-3981
▁Both	-3982
▁sche	-3983
-8")).	-3984
nomial	-3985
▁Image	-3986
▁docum	-3987
▁event	-3988
integer	-3989
▁heights	-3990
▁factorial	-3991
WW	-3992
(['	-3993
226	-3994
rot	-3995
▁`2	-3996
ping	-3997
\,000	-3998
beaut	-3999
tuple	-4000
[0][0]	-4001
binary	-4002
cursion	-4003
▁produce	-4004
▁customer	-4005
▁parameter	-4006
▁performing	-4007
ат	-4008
orge	-4009
▁2):	-4010
acity	-4011
ested	-4012
orite	-4013
ormal	-4014
▁cubes	-4015
▁encry	-4016
▁division	-4017
▁48	-4018
▁(4,	-4019
arest	-4020
▁mach	-4021
▁said	-4022
9,0,0,	-4023
cheese	-4024
▁taking	-4025
▁anything	-4026
*2	-4027
LI	-4028
xd	-4029
▁В	-4030
31.	-4031
cast	-4032
know	-4033
olog	-4034
▁PIL	-4035
▁dam	-4036
aight	-4037
asses	-4038
vator	-4039
▁2019	-4040
culate	-4041
factor	-4042
feature	-4043
▁important	-4044
▁rearrange	-4045
DD	-4046
sr	-4047
/57	-4048
ims	-4049
[1:]	-4050
ours	-4051
▁[0]*	-4052
▁eats	-4053
indices	-4054
▁predict	-4055
▁symbols	-4056
▁directly	-4057
▁DataFrame	-4058
1),	-4059
17.	-4060
220	-4061
805	-4062
ula	-4063
-1))	-4064
▁Cal	-4065
▁Henry	-4066
▁restore	-4067
▁combinations	-4068
(0	-4069
(5,	-4070
15,	-4071
2',	-4072
211	-4073
2,2,	-4074
▁18,	-4075
▁far	-4076
▁fast	-4077
▁gold	-4078
▁post	-4079
mplete	-4080
search	-4081
▁terms	-4082
▁factors	-4083
▁assigned	-4084
▁straight	-4085
▁occurrences	-4086
▁distribution	-4087
dy	-4088
▁!	-4089
head	-4090
igns	-4091
quent	-4092
▁cars	-4093
4,0,0,	-4094
appush	-4095
ecause	-4096
▁holds	-4097
▁short	-4098
▁rounds	-4099
▁section	-4100
▁palindrom	-4101
▁understand	-4102
▁Unfortunately	-4103
199	-4104
234	-4105
36,	-4106
=0,	-4107
[3]	-4108
▁9.	-4109
_2$,	-4110
ling	-4111
pted	-4112
▁16,	-4113
ounded	-4114
▁route	-4115
▁tiles	-4116
▁During	-4117
▁events	-4118
▁indexes	-4119
▁invalid	-4120
▁horizontal	-4121
He	-4122
=='	-4123
dis	-4124
▁5:	-4125
2019	-4126
omas	-4127
▁fac	-4128
▁fam	-4129
ished	-4130
▁food	-4131
▁share	-4132
▁implement	-4133
4:	-4134
ev	-4135
sw	-4136
1":	-4137
2))	-4138
77,	-4139
deg	-4140
gin	-4141
irth	-4142
iter	-4143
oday	-4144
▁ing	-4145
plied	-4146
vided	-4147
ataset	-4148
ptions	-4149
▁double	-4150
▁higher	-4151
▁vowels	-4152
▁bitwise	-4153
▁command	-4154
▁1000000007	-4155
ED	-4156
▁о	-4157
_3,	-4158
down	-4159
ergy	-4160
izza	-4161
▁Ans	-4162
▁sug	-4163
7.895	-4164
Write	-4165
▁took	-4166
return	-4167
▁10**9	-4168
▁based	-4169
▁wrong	-4170
▁island	-4171
7.8958,,	-4172
▁mathdef	-4173
▁polygon	-4174
▁favorite	-4175
▁rectangles	-4176
1',	-4177
61,	-4178
▁(10	-4179
ategor	-4180
▁[1,2,	-4181
▁watch	-4182
▁datetime	-4183
▁temperature	-4184
mi	-4185
228	-4186
=1,	-4187
Sub	-4188
()),	-4189
ason	-4190
ited	-4191
▁10$	-4192
▁Des	-4193
▁$10^	-4194
second	-4195
weight	-4196
▁looking	-4197
▁greatest	-4198
▁distances	-4199
▁interested	-4200
8:	-4201
sv	-4202
yy	-4203
"),	-4204
'))	-4205
499	-4206
fre	-4207
jor	-4208
osh	-4209
▁289	-4210
▁2]$	-4211
▁XOR	-4212
▁dri	-4213
=[0]*	-4214
child	-4215
ering	-4216
ittle	-4217
▁[10,	-4218
▁gave	-4219
▁sums	-4220
remain	-4221
▁Value	-4222
▁plays	-4223
▁median	-4224
ectorizer	-4225
▁password	-4226
▁replaced	-4227
#.	-4228
]>	-4229
}(	-4230
(20	-4231
=["	-4232
▁70	-4233
dule	-4234
spec	-4235
umps	-4236
▁est	-4237
▁$2$.	-4238
sample	-4239
▁dishes	-4240
position	-4241
▁closest	-4242
▁building	-4243
▁123456789	-4244
▁chocolate	-4245
(4,	-4246
35,	-4247
exp	-4248
rel	-4249
▁[#	-4250
[0]]	-4251
ison	-4252
▁ANS	-4253
▁swe	-4254
hline	-4255
▁didn	-4256
▁rate	-4257
▁rule	-4258
counts	-4259
▁1000)	-4260
▁1000$)	-4261
▁George	-4262
▁[1,2,3,	-4263
▁describing	-4264
::	-4265
EN	-4266
||	-4267
ен	-4268
"`,	-4269
gre	-4270
5,6,	-4271
ails	-4272
args	-4273
odes	-4274
rans	-4275
rown	-4276
uits	-4277
vice	-4278
([[1,	-4279
power	-4280
▁$3$.	-4281
▁matches	-4282
▁computer	-4283
▁provided	-4284
=3	-4285
16,	-4286
2),	-4287
800	-4288
:**	-4289
▁$9	-4290
▁2$	-4291
▁hi	-4292
cles	-4293
▁pen	-4294
▁pix	-4295
steps	-4296
square	-4297
▁built	-4298
▁merge	-4299
▁10^9).	-4300
divisible	-4301
plication	-4302
Qu	-4303
sc	-4304
men	-4305
▁1;	-4306
full	-4307
▁06:	-4308
▁boy	-4309
▁clf	-4310
istic	-4311
textbf	-4312
▁citiz	-4313
▁gener	-4314
▁yield	-4315
correct	-4316
▁develo	-4317
▁entire	-4318
▁played	-4319
▁ticket	-4320
▁dollars	-4321
▁missing	-4322
*.	-4323
Let	-4324
lad	-4325
oid	-4326
ral	-4327
txt	-4328
▁En	-4329
cket	-4330
▁14,	-4331
▁org	-4332
▁scre	-4333
ounted	-4334
balance	-4335
▁ingred	-4336
SS	-4337
24,	-4338
41,	-4339
67,	-4340
71,	-4341
854	-4342
▁(-	-4343
▁-5	-4344
▁ai	-4345
8765	-4346
▁[6,	-4347
▁stay	-4348
Number	-4349
height	-4350
▁stick	-4351
▁Series	-4352
▁Vertex	-4353
▁compon	-4354
▁thresh	-4355
▁belongs	-4356
▁removing	-4357
1$	-4358
9)	-4359
To	-4360
gu	-4361
▁ч	-4362
"")	-4363
245	-4364
315	-4365
86,	-4366
=['	-4367
spe	-4368
yes	-4369
▁'-	-4370
▁`3	-4371
()):	-4372
[1][	-4373
edge	-4374
poly	-4375
▁tup	-4376
▁Case	-4377
▁With	-4378
atural	-4379
current	-4380
▁filter	-4381
▁happen	-4382
▁report	-4383
▁strate	-4384
ducation	-4385
▁messages	-4386
processing	-4387
dimensional	-4388
-=	-4389
LE	-4390
ai	-4391
337	-4392
84,	-4393
cks	-4394
uct	-4395
you	-4396
▁Me	-4397
0,2,	-4398
ello	-4399
load	-4400
▁2^{	-4401
▁50,	-4402
▁dog	-4403
▁mov	-4404
▁xor	-4405
Class	-4406
:00:00	-4407
ourney	-4408
▁guess	-4409
▁flowers	-4410
▁nothing	-4411
▁printed	-4412
sequences	-4413
OT	-4414
ox	-4415
го	-4416
ед	-4417
250	-4418
mag	-4419
}^{	-4420
▁на	-4421
_{1,	-4422
many	-4423
}{2}	-4424
▁ver	-4425
▁why	-4426
apply	-4427
hemat	-4428
▁town	-4429
queries	-4430
▁street	-4431
▁project	-4432
collections	-4433
▁dictionary	-4434
2=	-4435
ru	-4436
ит	-4437
+2)	-4438
18.	-4439
80,	-4440
xor	-4441
▁01	-4442
▁74	-4443
back	-4444
▁3),	-4445
▁eng	-4446
▁etc	-4447
▁nor	-4448
▁cols	-4449
apping	-4450
▁energy	-4451
▁robots	-4452
▁additional	-4453
305	-4454
4],	-4455
▁',	-4456
▁32	-4457
▁37	-4458
▁DP	-4459
26,,	-4460
▁30,	-4461
▁7],	-4462
match	-4463
ramid	-4464
▁5000	-4465
▁[-1]	-4466
▁flat	-4467
▁prod	-4468
▁send	-4469
7,0,0,	-4470
aneous	-4471
bisect	-4472
▁votes	-4473
▁repeat	-4474
▁soldier	-4475
▁separate	-4476
▁customers	-4477
$:	-4478
han	-4479
iel	-4480
wns	-4481
▁My	-4482
▁Pe	-4483
▁ce	-4484
//2)	-4485
26.5	-4486
bmod	-4487
dest	-4488
▁0),	-4489
▁106	-4490
reate	-4491
▁lamp	-4492
▁love	-4493
▁radi	-4494
▁soon	-4495
problem	-4496
▁suffix	-4497
▁things	-4498
▁himself	-4499
▁changing	-4500
▁location	-4501
▁suitable	-4502
Vectorizer	-4503
palindrome	-4504
>0	-4505
0])	-4506
20.	-4507
3])	-4508
cut	-4509
ler	-4510
net	-4511
▁75	-4512
▁OR	-4513
Index	-4514
[-1])	-4515
query	-4516
space	-4517
▁$(3,	-4518
▁Line	-4519
reduce	-4520
▁birth	-4521
▁clean	-4522
element	-4523
▁compare	-4524
▁ordered	-4525
+(	-4526
It	-4527
UT	-4528
▁–	-4529
859	-4530
adj	-4531
▁0;	-4532
▁55	-4533
▁>>	-4534
▁175	-4535
▁hex	-4536
known	-4537
▁land	-4538
▁coding	-4539
▁complex	-4540
▁nearest	-4541
▁success	-4542
▁arranged	-4543
▁diagonal	-4544
▁clockwise	-4545
▁arrangement	-4546
ky	-4547
им	-4548
]!=	-4549
inp	-4550
▁xs	-4551
(''.	-4552
blue	-4553
cont	-4554
nton	-4555
urna	-4556
▁121	-4557
▁125	-4558
▁yet	-4559
▁$3$,	-4560
▁2016	-4561
▁Jose	-4562
▁hack	-4563
▁Notes	-4564
▁defin	-4565
▁delet	-4566
▁vowel	-4567
version	-4568
▁stands	-4569
▁tourna	-4570
NA	-4571
di	-4572
ald	-4573
▁38	-4574
▁la	-4575
(-1,	-4576
6666	-4577
```.	-4578
mark	-4579
divis	-4580
▁lock	-4581
potato	-4582
▁hence	-4583
▁notes	-4584
▁proce	-4585
▁skill	-4586
elements	-4587
▁forward	-4588
▁machine	-4589
▁completely	-4590
▁descriptions	-4591
Jo	-4592
rr	-4593
37.	-4594
MOD	-4595
\}$	-4596
aaa	-4597
att	-4598
ife	-4599
ists	-4600
▁(5,	-4601
▁His	-4602
▁дан	-4603
▁Mish	-4604
▁dice	-4605
▁loop	-4606
▁plot	-4607
▁100000	-4608
▁Assume	-4609
▁denoted	-4610
▁prepare	-4611
Sp	-4612
|!	-4613
And	-4614
ils	-4615
▁Qu	-4616
▁hu	-4617
0123	-4618
Tree	-4619
]=='	-4620
clic	-4621
leep	-4622
▁---	-4623
▁1]:	-4624
▁INF	-4625
▁Min	-4626
▁coe	-4627
▁det	-4628
appop	-4629
idden	-4630
terns	-4631
▁roll	-4632
▁stops	-4633
▁update	-4634
▁specific	-4635
permutation	-4636
▁necessarily	-4637
({"	-4638
18,	-4639
38,	-4640
625	-4641
ctr	-4642
▁49	-4643
pple	-4644
asure	-4645
posed	-4646
▁fixed	-4647
▁lives	-4648
▁loses	-4649
▁quick	-4650
▁Similar	-4651
▁counted	-4652
▁strategy	-4653
Classifier	-4654
▁calculated	-4655
▁directions	-4656
fs	-4657
|$	-4658
'):	-4659
))]	-4660
65,	-4661
Val	-4662
_0,	-4663
cap	-4664
sem	-4665
▁7)	-4666
tons	-4667
▁126	-4668
▁998	-4669
▁MAX	-4670
▁pot	-4671
ident	-4672
width	-4673
▁From	-4674
▁fall	-4675
▁fore	-4676
▁leaf	-4677
askell	-4678
▁Array	-4679
▁lucky	-4680
▁Thanks	-4681
▁damage	-4682
▁degree	-4683
aneously	-4684
▁denomin	-4685
▁members	-4686
▁products	-4687
2$	-4688
8)	-4689
sy	-4690
(["	-4691
0.5	-4692
}_{	-4693
▁"2	-4694
▁3-	-4695
▁64	-4696
▁dx	-4697
atas	-4698
while	-4699
▁inst	-4700
scores	-4701
urther	-4702
▁$10^9	-4703
▁switch	-4704
▁colored	-4705
▁getting	-4706
▁paralle	-4707
▁elevator	-4708
▁formally	-4709
ом	-4710
▁;	-4711
155	-4712
66,	-4713
One	-4714
ees	-4715
lar	-4716
3,2,	-4717
cols	-4718
null	-4719
sson	-4720
▁130	-4721
▁2.0	-4722
▁air	-4723
▁dic	-4724
▁lis	-4725
▁rem	-4726
iform	-4727
▁3101	-4728
uppose	-4729
▁spell	-4730
▁today	-4731
irected	-4732
▁10^{18	-4733
▁lowest	-4734
▁marked	-4735
▁simult	-4736
underline	-4737
▁balanced	-4738
▁mathemat	-4739
▁tournament	-4740
'`	-4741
As	-4742
269	-4743
2])	-4744
89,	-4745
>0:	-4746
MAX	-4747
acc	-4748
▁Po	-4749
▁ct	-4750
pace	-4751
reja	-4752
▁`0`	-4753
▁safe	-4754
ercise	-4755
segment	-4756
▁window	-4757
▁features	-4758
▁receives	-4759
▁education	-4760
6]	-4761
oc	-4762
su	-4763
001	-4764
227	-4765
[-1	-4766
oes	-4767
uby	-4768
▁44	-4769
▁54	-4770
▁89	-4771
like	-4772
▁ref	-4773
alpha	-4774
parse	-4775
▁memo	-4776
▁James	-4777
▁cover	-4778
▁drink	-4779
▁action	-4780
▁differ	-4781
▁account	-4782
including	-4783
▁applying	-4784
▁pairwise	-4785
▁simultaneously	-4786
iy	-4787
(3)	-4788
2":	-4789
364	-4790
8-0	-4791
azy	-4792
ley	-4793
▁Ko	-4794
+1])	-4795
1137	-4796
book	-4797
rote	-4798
▁Add	-4799
reach	-4800
▁link	-4801
3,0,0,	-4802
▁"""##	-4803
▁named	-4804
▁seats	-4805
▁depart	-4806
▁rotate	-4807
▁struct	-4808
▁finally	-4809
▁birthday	-4810
▁constant	-4811
▁employee	-4812
▁Similarly	-4813
-9	-4814
ID	-4815
_5	-4816
81,	-4817
82,	-4818
SCII	-4819
Your	-4820
iled	-4821
sele	-4822
thur	-4823
view	-4824
▁$[1	-4825
▁0.4	-4826
▁`1`	-4827
▁$1$-	-4828
answer	-4829
common	-4830
unique	-4831
▁carry	-4832
▁pages	-4833
▁Sample	-4834
▁knight	-4835
▁1000000	-4836
▁journey	-4837
▁instance	-4838
ра	-4839
205	-4840
36.	-4841
365	-4842
4",	-4843
Not	-4844
[1,	-4845
var	-4846
▁97	-4847
▁:=	-4848
▁aw	-4849
▁17,	-4850
▁Bar	-4851
▁tax	-4852
▁yes	-4853
acket	-4854
ander	-4855
bered	-4856
local	-4857
▁[-1,	-4858
ivalent	-4859
osition	-4860
▁burles	-4861
▁memory	-4862
distinct	-4863
▁actions	-4864
-(	-4865
300	-4866
32,	-4867
55,	-4868
sie	-4869
▁ca	-4870
▁ls	-4871
file	-4872
rist	-4873
▁1$,	-4874
▁6],	-4875
ience	-4876
▁prov	-4877
column	-4878
▁estim	-4879
▁frame	-4880
▁swaps	-4881
▁wrote	-4882
▁levels	-4883
▁turned	-4884
▁Charles	-4885
▁reading	-4886
▁occupied	-4887
▁recently	-4888
▁soldiers	-4889
▁Calculate	-4890
▁threshold	-4891
▁chocolates	-4892
An	-4893
CV	-4894
)-1	-4895
777	-4896
}$)	-4897
room	-4898
▁Rec	-4899
▁fro	-4900
▁{1}	-4901
alera	-4902
idual	-4903
▁lost	-4904
▁activ	-4905
▁https	-4906
▁orders	-4907
▁skills	-4908
▁readline	-4909
▁happiness	-4910
▁increases	-4911
=5	-4912
St	-4913
xs	-4914
}\	-4915
104	-4916
85,	-4917
Int	-4918
]=1	-4919
▁",	-4920
rate	-4921
road	-4922
vals	-4923
▁cube	-4924
ensors	-4925
▁press	-4926
▁10^4$)	-4927
▁Choose	-4928
▁multise	-4929
998244353	-4930
difference	-4931
▁contained	-4932
|,	-4933
)).	-4934
19,	-4935
328	-4936
Len	-4937
ools	-4938
▁ins	-4939
losed	-4940
▁Mike	-4941
▁Type	-4942
▁bear	-4943
▁"2019	-4944
▁1000,	-4945
▁begins	-4946
▁member	-4947
▁screen	-4948
▁buttons	-4949
▁natural	-4950
▁notation	-4951
▁specified	-4952
7]	-4953
9:	-4954
\_	-4955
"):	-4956
19.	-4957
299	-4958
35.	-4959
39,	-4960
Con	-4961
imp	-4962
}{2	-4963
▁'*	-4964
▁85	-4965
▁Ad	-4966
ener	-4967
this	-4968
▁Per	-4969
▁bal	-4970
▁neg	-4971
hello	-4972
lists	-4973
stats	-4974
▁port	-4975
▁save	-4976
astype	-4977
imeter	-4978
▁Today	-4979
▁connects	-4980
▁describes	-4981
6$	-4982
63,	-4983
88,	-4984
pol	-4985
rol	-4986
ager	-4987
▁31,	-4988
▁400	-4989
▁leg	-4990
▁sal	-4991
▁conf	-4992
▁pref	-4993
stdout	-4994
▁enter	-4995
▁warri	-4996
▁origin	-4997
▁powers	-4998
........	-4999
▁covered	-5000
▁feature	-5001
▁however	-5002
▁meaning	-5003
▁chessboard	-5004
+4	-5005
Be	-5006
ME	-5007
UR	-5008
cb	-5009
px	-5010
▁≦	-5011
(4)	-5012
-3,	-5013
224	-5014
329	-5015
870	-5016
New	-5017
ury	-5018
use	-5019
▁'?	-5020
tric	-5021
▁127	-5022
▁128	-5023
▁177	-5024
▁23,	-5025
▁4]$	-5026
())))	-5027
==0):	-5028
heses	-5029
round	-5030
▁nice	-5031
▁sqrt	-5032
▁vote	-5033
posite	-5034
▁erase	-5035
-1,-1):	-5036
coordin	-5037
▁border	-5038
▁conver	-5039
▁symbol	-5040
ification	-5041
▁commands	-5042
▁monsters	-5043
(\	-5044
De	-5045
VC	-5046
117	-5047
fib	-5048
pad	-5049
sen	-5050
▁"-	-5051
▁'\	-5052
▁6)	-5053
▁65	-5054
▁Cl	-5055
1000	-5056
aded	-5057
heap	-5058
prod	-5059
xxxx	-5060
▁AsT	-5061
▁fib	-5062
▁kid	-5063
▁pup	-5064
chars	-5065
ipher	-5066
▁army	-5067
▁busy	-5068
▁idea	-5069
▁kill	-5070
▁angle	-5071
▁organ	-5072
5-04-24	-5073
80-01-0	-5074
ization	-5075
▁adding	-5076
▁giving	-5077
▁server	-5078
▁capacity	-5079
▁equation	-5080
▁employees	-5081
▁identical	-5082
▁Codeforces	-5083
▁difficulty	-5084
▁competition	-5085
Un	-5086
[]	-5087
367	-5088
dup	-5089
▁(5	-5090
-02,	-5091
-1$.	-5092
Data	-5093
])))	-5094
asic	-5095
conn	-5096
each	-5097
lean	-5098
quad	-5099
uted	-5100
▁Col	-5101
▁[],	-5102
▁der	-5103
▁rep	-5104
acing	-5105
anted	-5106
coins	-5107
table	-5108
▁calc	-5109
▁ceil	-5110
▁earl	-5111
▁freq	-5112
▁near	-5113
ciated	-5114
letter	-5115
semble	-5116
▁great	-5117
▁photo	-5118
▁2012-0	-5119
▁simply	-5120
▁данные	-5121
▁objects	-5122
▁depending	-5123
▁dimension	-5124
AG	-5125
ли	-5126
237	-5127
Dig	-5128
iad	-5129
nel	-5130
▁(4	-5131
▁ju	-5132
teen	-5133
ured	-5134
▁124	-5135
▁Use	-5136
▁Fred	-5137
▁mass	-5138
ecimal	-5139
▁1000$	-5140
▁stats	-5141
▁eating	-5142
________	-5143
000000000	-5144
▁subtract	-5145
▁duplicate	-5146
▁Polycarpus	-5147
!'	-5148
IS	-5149
ся	-5150
▁“	-5151
(2*	-5152
)//	-5153
330	-5154
875	-5155
879	-5156
[2*	-5157
_2)	-5158
ged	-5159
ott	-5160
▁'#	-5161
▁0$	-5162
▁Pl	-5163
▁`5	-5164
([])	-5165
fill	-5166
post	-5167
▁2))	-5168
▁See	-5169
▁hit	-5170
ister	-5171
▁mill	-5172
▁phone	-5173
▁Arthur	-5174
▁config	-5175
▁decide	-5176
▁office	-5177
▁secret	-5178
▁Suppose	-5179
▁candidate	-5180
▁correctly	-5181
▁everything	-5182
▁≥	-5183
([1	-5184
456	-5185
_{2	-5186
gex	-5187
pri	-5188
ros	-5189
▁46	-5190
Size	-5191
▁[[0	-5192
▁ill	-5193
Hello	-5194
mpiad	-5195
▁')))	-5196
▁ment	-5197
extend	-5198
ходные	-5199
▁10^5,	-5200
▁jumps	-5201
▁kinds	-5202
▁tower	-5203
distrib	-5204
▁thinks	-5205
▁formula	-5206
recursion	-5207
▁equivalent	-5208
▁undirected	-5209
/`	-5210
bi	-5211
ga	-5212
▁―	-5213
(5)	-5214
120	-5215
370	-5216
70,	-5217
▁xy	-5218
avas	-5219
mess	-5220
rase	-5221
▁1$.	-5222
▁Don	-5223
▁adv	-5224
▁cum	-5225
▁pri	-5226
arden	-5227
earch	-5228
happy	-5229
ishes	-5230
▁$4$.	-5231
▁coll	-5232
▁seat	-5233
▁Among	-5234
▁evalu	-5235
▁pizza	-5236
▁shuff	-5237
▁solved	-5238
▁rounded	-5239
▁running	-5240
▁solving	-5241
▁document	-5242
▁including	-5243
▁polynomial	-5244
▁university	-5245
5:	-5246
@@	-5247
`)	-5248
pd	-5249
1])	-5250
210	-5251
225	-5252
32:	-5253
359	-5254
890	-5255
fac	-5256
-1].	-5257
Name	-5258
ipes	-5259
▁-2,	-5260
clock	-5261
usage	-5262
▁Move	-5263
▁Only	-5264
▁puzz	-5265
▁vill	-5266
Script	-5267
interse	-5268
▁methods	-5269
▁subsets	-5270
▁opposite	-5271
▁property	-5272
▁training	-5273
9.	-5274
}}	-5275
454	-5276
7],	-5277
but	-5278
eff	-5279
sel	-5280
▁3$	-5281
▁ss	-5282
(3):	-5283
abab	-5284
used	-5285
▁mul	-5286
▁ten	-5287
▁Inna	-5288
▁qual	-5289
▁bound	-5290
▁transl	-5291
▁samples	-5292
▁leftmost	-5293
▁situation	-5294
preprocessing	-5295
Gr	-5296
go	-5297
").	-5298
"`.	-5299
('\	-5300
ube	-5301
/1/1	-5302
ader	-5303
aria	-5304
axes	-5305
ustr	-5306
▁Not	-5307
ioned	-5308
three	-5309
ulate	-5310
white	-5311
▁$4$,	-5312
▁join	-5313
▁null	-5314
.0,26.	-5315
legend	-5316
▁clear	-5317
▁fruit	-5318
▁quite	-5319
popleft	-5320
▁Sereja	-5321
▁Thomas	-5322
▁Valera	-5323
▁bacter	-5324
▁bottle	-5325
▁yellow	-5326
keywords	-5327
versions	-5328
▁Numbers	-5329
▁parallel	-5330
▁Fibonacci	-5331
▁languages	-5332
▁variables	-5333
▁indicating	-5334
recursionlimit	-5335
8\	-5336
={	-5337
+1$	-5338
230	-5339
30.	-5340
865	-5341
>=0	-5342
▁95	-5343
▁bi	-5344
[0]:	-5345
more	-5346
rors	-5347
▁New	-5348
▁[8,	-5349
▁[9,	-5350
rices	-5351
▁Java	-5352
▁entr	-5353
▁Anton	-5354
▁hands	-5355
▁Joseph	-5356
▁nested	-5357
87654321	-5358
ensitive	-5359
irection	-5360
numbered	-5361
▁categor	-5362
▁suggest	-5363
subsequence	-5364
▁destination	-5365
vl	-5366
('1	-5367
195	-5368
215	-5369
327	-5370
369	-5371
664	-5372
69,	-5373
csr	-5374
occ	-5375
▁"+	-5376
:00:	-5377
]+=1	-5378
high	-5379
ying	-5380
▁$11	-5381
▁0).	-5382
chase	-5383
edges	-5384
elect	-5385
▁adds	-5386
▁park	-5387
([1,2,	-5388
mathrm	-5389
▁(10^9	-5390
▁Masha	-5391
▁local	-5392
▁mount	-5393
▁Andrew	-5394
▁effect	-5395
▁radius	-5396
▁rubles	-5397
▁percent	-5398
▁pyramid	-5399
▁support	-5400
substring	-5401
▁Pipeline	-5402
▁connecting	-5403
▁occurrence	-5404
ml	-5405
+02	-5406
10)	-5407
239	-5408
32.	-5409
37,	-5410
]$,	-5411
hip	-5412
rad	-5413
▁2\	-5414
▁hy	-5415
▁ve	-5416
Long	-5417
kady	-5418
pass	-5419
▁"".	-5420
▁3]$	-5421
▁>>=	-5422
▁gar	-5423
depth	-5424
▁Mult	-5425
▁Vlad	-5426
▁mist	-5427
▁pers	-5428
▁Enjoy	-5429
▁indiv	-5430
▁sheet	-5431
▁thing	-5432
message	-5433
similar	-5434
▁10^5).	-5435
▁design	-5436
▁rather	-5437
▁stdout	-5438
factorial	-5439
▁citizens	-5440
▁objective	-5441
+'	-5442
115	-5443
119	-5444
240	-5445
64,	-5446
[2:	-5447
unt	-5448
-05,	-5449
-1]:	-5450
prev	-5451
▁"0"	-5452
▁$7$	-5453
▁0.9	-5454
▁25,	-5455
▁boo	-5456
▁img	-5457
▁nth	-5458
fully	-5459
▁puts	-5460
Series	-5461
quares	-5462
strict	-5463
▁begin	-5464
▁later	-5465
▁overl	-5466
▁snake	-5467
lympiad	-5468
▁coming	-5469
▁lights	-5470
▁normal	-5471
▁option	-5472
▁writes	-5473
▁against	-5474
▁reached	-5475
▁exercise	-5476
▁multiset	-5477
▁remember	-5478
▁standard	-5479
▁continuous	-5480
1+	-5481
AP	-5482
On	-5483
214	-5484
387	-5485
995	-5486
▁Fr	-5487
[0]*	-5488
ouqu	-5489
▁119	-5490
▁2).	-5491
Prime	-5492
coder	-5493
▁$10$	-5494
▁0.16	-5495
▁King	-5496
(2020,	-5497
default	-5498
ulation	-5499
▁10^5$,	-5500
▁garden	-5501
dataframe	-5502
imensions	-5503
▁choosing	-5504
▁exchange	-5505
▁pictures	-5506
▁decreasing	-5507
GH	-5508
Ne	-5509
hh	-5510
)==	-5511
1':	-5512
375	-5513
=0)	-5514
csv	-5515
dom	-5516
375,	-5517
[2],	-5518
][2]	-5519
eval	-5520
ship	-5521
sums	-5522
▁Div	-5523
▁ant	-5524
▁nxt	-5525
][1])	-5526
title	-5527
▁Name	-5528
▁hash	-5529
▁vice	-5530
ponent	-5531
quency	-5532
sparse	-5533
▁chain	-5534
▁guest	-5535
▁maxim	-5536
▁conson	-5537
▁decides	-5538
▁subject	-5539
▁dividing	-5540
▁duplicates	-5541
▁transformed	-5542
-3	-5543
kk	-5544
ис	-5545
)])	-5546
128	-5547
134	-5548
275	-5549
600	-5550
73,	-5551
pen	-5552
▁-4	-5553
▁ii	-5554
iest	-5555
▁'.'	-5556
▁Pat	-5557
▁ban	-5558
▁pub	-5559
▁tra	-5560
▁uns	-5561
▁($1\	-5562
▁--->	-5563
▁pipe	-5564
▁view	-5565
Search	-5566
▁10^6$	-5567
▁exper	-5568
▁night	-5569
▁regex	-5570
▁sleep	-5571
longest	-5572
▁animal	-5573
▁floors	-5574
▁slices	-5575
,22,0,0,	-5576
pression	-5577
▁extract	-5578
▁passenger	-5579
▁candidates	-5580
LO	-5581
]<	-5582
!!!	-5583
+1:	-5584
395	-5585
7-1	-5586
=="	-5587
aks	-5588
bra	-5589
cos	-5590
ilo	-5591
▁$$	-5592
>>>>	-5593
[2])	-5594
bill	-5595
idge	-5596
▁115	-5597
▁Com	-5598
▁Vas	-5599
6-05-	-5600
:00",	-5601
=====	-5602
iders	-5603
incre	-5604
▁exit	-5605
▁[0,0,	-5606
▁eaten	-5607
▁enjoy	-5608
actions	-5609
ariable	-5610
maximum	-5611
▁Square	-5612
▁actual	-5613
▁filled	-5614
▁liters	-5615
▁states	-5616
▁cluster	-5617
▁included	-5618
▁intervals	-5619
▁assignment	-5620
▁neighboring	-5621
)/	-5622
rn	-5623
ym	-5624
005	-5625
3,4	-5626
321	-5627
5],	-5628
fin	-5629
tre	-5630
▁'2	-5631
▁56	-5632
▁Rs	-5633
▁`4	-5634
▁cc	-5635
arth	-5636
echn	-5637
▁$1,	-5638
▁150	-5639
▁ABC	-5640
▁Ele	-5641
▁Man	-5642
▁gas	-5643
Right	-5644
abeth	-5645
anger	-5646
aught	-5647
caler	-5648
▁[[0,	-5649
▁clar	-5650
▁hote	-5651
▁reco	-5652
beauty	-5653
colors	-5654
▁ASCII	-5655
▁throw	-5656
▁stairs	-5657
11111111	-5658
▁include	-5659
▁bacteria	-5660
▁finished	-5661
▁decreases	-5662
▁dimensions	-5663
.*	-5664
gt	-5665
160	-5666
235	-5667
320	-5668
640	-5669
766	-5670
can	-5671
loo	-5672
ono	-5673
uts	-5674
4,2,	-5675
_{2,	-5676
flat	-5677
ging	-5678
itor	-5679
ords	-5680
ream	-5681
▁180	-5682
▁NOT	-5683
▁csr	-5684
▁rev	-5685
imest	-5686
▁Make	-5687
▁scen	-5688
10.5,,	-5689
inally	-5690
viously	-5691
▁battle	-5692
▁tuples	-5693
,21,0,0,	-5694
,30,0,0,	-5695
features	-5696
imestamp	-5697
▁accepts	-5698
▁opening	-5699
▁reaches	-5700
▁fraction	-5701
▁schedule	-5702
+5	-5703
BW	-5704
во	-5705
179	-5706
43,	-5707
840	-5708
foo	-5709
▁Mo	-5710
▁gl	-5711
(100	-5712
875,	-5713
<<<<	-5714
Play	-5715
both	-5716
▁1)$	-5717
▁2$,	-5718
▁Out	-5719
▁lim	-5720
Alice	-5721
eters	-5722
month	-5723
uthor	-5724
▁City	-5725
▁bill	-5726
%2==0:	-5727
▁100).	-5728
indexed	-5729
▁Arkady	-5730
▁colour	-5731
▁decomp	-5732
▁longer	-5733
▁prefer	-5734
▁proper	-5735
cription	-5736
integers	-5737
▁Because	-5738
▁removes	-5739
▁nonlocal	-5740
0000000000	-5741
▁definition	-5742
▁palindromes	-5743
▁requirements	-5744
OK	-5745
Wh	-5746
(0.	-5747
175	-5748
309	-5749
33.	-5750
76,	-5751
=2,	-5752
]})	-5753
▁#!	-5754
▁`$	-5755
▁ra	-5756
([0,	-5757
0],[	-5758
100,	-5759
10^{	-5760
AAAA	-5761
Cost	-5762
drop	-5763
func	-5764
wers	-5765
————	-5766
▁(30	-5767
▁bid	-5768
▁mix	-5769
▁pan	-5770
▁sep	-5771
apped	-5772
bound	-5773
field	-5774
seven	-5775
▁####	-5776
▁$(0,	-5777
▁Take	-5778
▁acce	-5779
▁deal	-5780
▁face	-5781
▁prof	-5782
▁race	-5783
▁sent	-5784
nights	-5785
▁Sasha	-5786
largest	-5787
▁months	-5788
Polycarp	-5789
▁address	-5790
▁classes	-5791
▁outside	-5792
▁submiss	-5793
▁testing	-5794
▁writing	-5795
▁everyone	-5796
▁parentheses	-5797
*-	-5798
('0	-5799
***	-5800
133	-5801
174	-5802
259	-5803
290	-5804
355	-5805
5,6	-5806
765	-5807
990	-5808
fee	-5809
ham	-5810
ora	-5811
▁):	-5812
▁bb	-5813
[1]]	-5814
cher	-5815
rict	-5816
▁$8$	-5817
▁0$.	-5818
▁19,	-5819
775,,	-5820
black	-5821
final	-5822
which	-5823
xaxis	-5824
▁Oper	-5825
▁Play	-5826
▁capt	-5827
▁care	-5828
▁hero	-5829
▁huge	-5830
▁lose	-5831
▁occu	-5832
▁zomb	-5833
[0][1]	-5834
ighted	-5835
multip	-5836
▁[0]*(	-5837
▁doors	-5838
4,0,3,"	-5839
▁castle	-5840
▁closing	-5841
▁dataset	-5842
▁wonders	-5843
avascript	-5844
▁triangles	-5845
▁combination	-5846
▁correspondingly	-5847
.__	-5848
495	-5849
Min	-5850
bet	-5851
gen	-5852
she	-5853
sin	-5854
-01-	-5855
2016	-5856
=42)	-5857
tect	-5858
ucky	-5859
▁-1)	-5860
▁Wor	-5861
ounce	-5862
▁mind	-5863
▁till	-5864
needed	-5865
▁appre	-5866
▁versa	-5867
candies	-5868
▁Before	-5869
▁Edward	-5870
▁across	-5871
▁closed	-5872
▁parity	-5873
▁passes	-5874
▁planet	-5875
▁vector	-5876
▁........	-5877
▁Original	-5878
▁presented	-5879
------------	-5880
▁progression	-5881
./	-5882
}|	-5883
209	-5884
295	-5885
3":	-5886
433	-5887
615	-5888
93,	-5889
dim	-5890
sca	-5891
tty	-5892
▁"(	-5893
▁5$	-5894
▁Em	-5895
▁nn	-5896
/2/1	-5897
4444	-5898
7,8,	-5899
844,	-5900
Find	-5901
ible	-5902
loor	-5903
▁145	-5904
▁Den	-5905
▁Sam	-5906
▁Sub	-5907
▁age	-5908
▁chr	-5909
nodes	-5910
plots	-5911
▁Once	-5912
▁cuts	-5913
▁soft	-5914
ailing	-5915
▁bouqu	-5916
▁finds	-5917
▁impro	-5918
▁moved	-5919
▁signs	-5920
0000000	-5921
inspace	-5922
▁0.0000	-5923
▁region	-5924
▁wanted	-5925
▁bottles	-5926
mpossible	-5927
▁individual	-5928
'}	-5929
(_	-5930
Sh	-5931
cf	-5932
kw	-5933
lt	-5934
oy	-5935
rs	-5936
121	-5937
127	-5938
379	-5939
SOT	-5940
`/`	-5941
aly	-5942
iff	-5943
oud	-5944
rem	-5945
see	-5946
tol	-5947
usr	-5948
_{1}	-5949
onds	-5950
▁4),	-5951
▁dot	-5952
SOTON	-5953
cards	-5954
gress	-5955
shift	-5956
▁grow	-5957
▁pill	-5958
▁plus	-5959
,,1,0,	-5960
=[0]*(	-5961
Scaler	-5962
coding	-5963
orders	-5964
0,0,3,"	-5965
▁sweets	-5966
,24,0,0,	-5967
1,1,1,1,	-5968
▁options	-5969
▁pressed	-5970
▁scenari	-5971
▁someone	-5972
▁thought	-5973
▁duration	-5974
▁challenge	-5975
▁passengers	-5976
&!	-5977
Me	-5978
RE	-5979
^3	-5980
db	-5981
dr	-5982
"".	-5983
+1}	-5984
-2]	-5985
0):	-5986
449	-5987
47,	-5988
679	-5989
720	-5990
866	-5991
[0:	-5992
))))	-5993
**2)	-5994
="")	-5995
four	-5996
iles	-5997
▁jud	-5998
arded	-5999
▁axes	-6000
▁earn	-6001
▁past	-6002
▁summ	-6003
▁went	-6004
▁bored	-6005
▁codes	-6006
▁minim	-6007
counter	-6008
ilities	-6009
▁Format	-6010
▁electr	-6011
▁opened	-6012
▁status	-6013
linspace	-6014
▁neither	-6015
▁remains	-6016
selection	-6017
▁actually	-6018
▁requests	-6019
▁restrict	-6020
LongTensor	-6021
▁structure	-6022
▁ingredients	-6023
'\	-6024
IM	-6025
135	-6026
3",	-6027
311	-6028
335	-6029
390	-6030
400	-6031
685	-6032
849	-6033
867	-6034
cii	-6035
hel	-6036
ops	-6037
pus	-6038
tot	-6039
vow	-6040
▁Pr	-6041
▁по	-6042
abcd	-6043
sian	-6044
step	-6045
▁'('	-6046
▁deb	-6047
▁ign	-6048
aries	-6049
begin	-6050
class	-6051
hesis	-6052
numpy	-6053
▁000,	-6054
▁100.	-6055
▁Inte	-6056
▁curs	-6057
▁lies	-6058
▁says	-6059
▁swit	-6060
subset	-6061
▁$-1$.	-6062
▁pixels	-6063
▁Finally	-6064
▁choices	-6065
▁illustr	-6066
▁tensors	-6067
100000000	-6068
▁purchase	-6069
▁displayed	-6070
▁reachable	-6071
=>	-6072
▁м	-6073
**(	-6074
/04	-6075
289	-6076
62,	-6077
aab	-6078
▁79	-6079
▁Bl	-6080
▁Dr	-6081
▁TV	-6082
/04/	-6083
extr	-6084
make	-6085
pies	-6086
▁"10	-6087
▁(20	-6088
▁Dan	-6089
▁Ger	-6090
▁due	-6091
Vasya	-6092
▁$5$,	-6093
▁http	-6094
▁tail	-6095
Return	-6096
amount	-6097
ctools	-6098
ressed	-6099
▁12345	-6100
▁While	-6101
▁assum	-6102
ability	-6103
letters	-6104
▁11:00:	-6105
▁guests	-6106
▁occupy	-6107
▁source	-6108
▁quickly	-6109
ridSearch	-6110
▁counting	-6111
▁matching	-6112
▁efficient	-6113
lexicograph	-6114
)(	-6115
GE	-6116
zy	-6117
221	-6118
380	-6119
49,	-6120
87,	-6121
]*(	-6122
bre	-6123
idi	-6124
|■■	-6125
▁Sw	-6126
▁ep	-6127
Case	-6128
Good	-6129
bert	-6130
orse	-6131
roll	-6132
uler	-6133
▁Nik	-6134
▁men	-6135
[:-1]	-6136
astya	-6137
cases	-6138
cdots	-6139
mical	-6140
numer	-6141
otent	-6142
▁$100	-6143
▁1]$,	-6144
▁buys	-6145
▁runs	-6146
▁ship	-6147
▁tank	-6148
object	-6149
▁quant	-6150
unction	-6151
▁1,000$	-6152
▁Column	-6153
▁phrase	-6154
▁0.00008	-6155
▁encoded	-6156
▁finding	-6157
▁tickets	-6158
▁entrance	-6159
▁versions	-6160
▁intersect	-6161
▁wondering	-6162
▁performance	-6163
1(	-6164
4.	-6165
Po	-6166
fa	-6167
sq	-6168
130	-6169
145	-6170
170	-6171
249	-6172
318	-6173
319	-6174
4-0	-6175
40,	-6176
675	-6177
827	-6178
==1	-6179
Str	-6180
ran	-6181
▁59	-6182
▁ID	-6183
▁xx	-6184
)//2	-6185
]=="	-6186
_**:	-6187
anta	-6188
dure	-6189
unch	-6190
▁"20	-6191
▁1},	-6192
▁2.5	-6193
▁3.0	-6194
▁9],	-6195
▁AND	-6196
▁ann	-6197
▁ice	-6198
▁sto	-6199
cular	-6200
▁10^8	-6201
▁bars	-6202
▁chip	-6203
▁disc	-6204
▁fish	-6205
▁push	-6206
udents	-6207
update	-6208
▁Check	-6209
▁Little	-6210
▁Select	-6211
▁spends	-6212
▁boolean	-6213
▁happens	-6214
▁sorting	-6215
▁matrices	-6216
increasing	-6217
▁neighbour	-6218
▁rightmost	-6219
▁concatenation	-6220
)}	-6221
Se	-6222
UM	-6223
`:	-6224
▁н	-6225
(11	-6226
/1/	-6227
339	-6228
366	-6229
609	-6230
68,	-6231
7.9	-6232
844	-6233
]+=	-6234
mme	-6235
pes	-6236
vis	-6237
▁8)	-6238
2],[	-6239
fidf	-6240
lets	-6241
▁174	-6242
▁234	-6243
▁3$,	-6244
▁Res	-6245
▁[[1	-6246
▁bon	-6247
▁cow	-6248
▁gap	-6249
▁mil	-6250
▁mir	-6251
▁pol	-6252
build	-6253
reset	-6254
there	-6255
▁Spec	-6256
▁[12,	-6257
▁boys	-6258
▁feed	-6259
▁frog	-6260
▁supp	-6261
▁vide	-6262
([])))	-6263
orning	-6264
▁10^{9	-6265
▁hotel	-6266
▁simpl	-6267
1,0,3,"	-6268
7.775,,	-6269
▁Create	-6270
▁easily	-6271
▁flower	-6272
▁forget	-6273
▁instru	-6274
▁spells	-6275
▁typing	-6276
heappush	-6277
▁brother	-6278
▁servers	-6279
▁components	-6280
▁configuration	-6281
GT	-6282
md	-6283
{\	-6284
(26	-6285
389	-6286
emy	-6287
lis	-6288
svm	-6289
▁4$	-6290
▁Ph	-6291
{1}{	-6292
▁"1"	-6293
▁Mat	-6294
▁pun	-6295
()[0]	-6296
10**9	-6297
cells	-6298
green	-6299
ticks	-6300
▁0.01	-6301
▁1415	-6302
/04/02	-6303
modulo	-6304
primes	-6305
selves	-6306
▁$10^5	-6307
▁2·10^	-6308
▁State	-6309
▁[1,1,	-6310
▁apart	-6311
▁eight	-6312
▁movie	-6313
▁produ	-6314
▁strip	-6315
▁cyclic	-6316
▁though	-6317
▁constru	-6318
▁content	-6319
▁achieved	-6320
▁converted	-6321
▁collection	-6322
fidfVectorizer	-6323
0[	-6324
AD	-6325
GB	-6326
^1	-6327
ki	-6328
xa	-6329
□□	-6330
':[	-6331
-10	-6332
-2-	-6333
125	-6334
284	-6335
3-0	-6336
326	-6337
815	-6338
850	-6339
994	-6340
Ste	-6341
___	-6342
gar	-6343
▁Fe	-6344
▁vs	-6345
1011	-6346
3,5,	-6347
ency	-6348
freq	-6349
▁#!/	-6350
▁aut	-6351
▁beh	-6352
▁mis	-6353
▁web	-6354
Train	-6355
[-1][	-6356
rency	-6357
▁bomb	-6358
▁dogs	-6359
▁held	-6360
1,1,1,	-6361
lfloor	-6362
rfloor	-6363
▁stage	-6364
ardless	-6365
imeters	-6366
izabeth	-6367
predict	-6368
▁10^5$.	-6369
▁bricks	-6370
▁orange	-6371
▁triple	-6372
ological	-6373
original	-6374
▁10^5$).	-6375
▁10^9$).	-6376
▁inplace	-6377
▁request	-6378
▁accepted	-6379
▁warriors	-6380
▁Alexander	-6381
-6	-6382
AS	-6383
uc	-6384
▁з	-6385
");	-6386
015	-6387
655	-6388
687	-6389
695	-6390
825	-6391
hms	-6392
lin	-6393
olf	-6394
▁7]	-6395
▁os	-6396
101,	-6397
flag	-6398
repe	-6399
spat	-6400
▁11.	-6401
▁Bes	-6402
▁Koa	-6403
▁cos	-6404
▁war	-6405
onent	-6406
torch	-6407
▁kids	-6408
▁kilo	-6409
ictory	-6410
tolist	-6411
▁20000	-6412
▁Peter	-6413
▁girls	-6414
▁grade	-6415
▁intro	-6416
▁layer	-6417
▁reads	-6418
▁seven	-6419
▁spent	-6420
2,0,3,"	-6421
example	-6422
isalpha	-6423
spatial	-6424
squares	-6425
▁fruits	-6426
▁visits	-6427
ifically	-6428
▁applied	-6429
▁encrypt	-6430
▁morning	-6431
▁keyboard	-6432
▁painting	-6433
▁functools	-6434
▁therefore	-6435
Si	-6436
ка	-6437
▁•	-6438
▁➞	-6439
**.	-6440
01:	-6441
207	-6442
3',	-6443
3),	-6444
614	-6445
649	-6446
654	-6447
79,	-6448
Div	-6449
[:]	-6450
equ	-6451
▁``	-6452
3500	-6453
4-10	-6454
5-19	-6455
Node	-6456
_{2}	-6457
ades	-6458
izer	-6459
late	-6460
▁134	-6461
▁1<=	-6462
▁Nor	-6463
▁att	-6464
▁tun	-6465
(10**	-6466
paint	-6467
▁$5$.	-6468
▁$[5,	-6469
▁1069	-6470
▁ring	-6471
▁soci	-6472
▁tast	-6473
-01-01	-6474
duplic	-6475
friend	-6476
profit	-6477
▁cakes	-6478
▁offer	-6479
Counter	-6480
initial	-6481
viation	-6482
▁handle	-6483
▁linear	-6484
▁puzzle	-6485
▁cookies	-6486
▁further	-6487
▁strange	-6488
▁contests	-6489
▁procedure	-6490
▁specifier	-6491
▁determined	-6492
▁partitions	-6493
4}	-6494
TS	-6495
###	-6496
$);	-6497
219	-6498
34.	-6499
388	-6500
755	-6501
839	-6502
845	-6503
cir	-6504
ino	-6505
unc	-6506
▁Sm	-6507
▁km	-6508
!!!!	-6509
!=0:	-6510
bits	-6511
cipe	-6512
hips	-6513
ived	-6514
note	-6515
▁#=>	-6516
▁'!(	-6517
▁1]$	-6518
▁21,	-6519
▁7).	-6520
▁dim	-6521
▁lab	-6522
bject	-6523
speed	-6524
▁9999	-6525
▁cats	-6526
▁dead	-6527
▁obst	-6528
stones	-6529
▁10^6)	-6530
▁10^9,	-6531
▁Round	-6532
▁Serge	-6533
▁accum	-6534
▁alarm	-6535
▁alpha	-6536
▁bills	-6537
▁inner	-6538
▁obser	-6539
▁smart	-6540
▁meeting	-6541
▁overlap	-6542
▁99999999	-6543
▁deleting	-6544
▁heappush	-6545
▁integral	-6546
▁998244353	-6547
▁remembers	-6548
▁programmer	-6549
▁denominator	-6550
▁TfidfVectorizer	-6551
'*	-6552
5}	-6553
YY	-6554
та	-6555
+=(	-6556
/2)	-6557
12.	-6558
180	-6559
270	-6560
277	-6561
285	-6562
314	-6563
645	-6564
Ele	-6565
_{1	-6566
▁![	-6567
▁69	-6568
▁Si	-6569
▁Sp	-6570
▁fa	-6571
1],[	-6572
ache	-6573
ahub	-6574
atio	-6575
bool	-6576
iced	-6577
ised	-6578
▁10:	-6579
▁144	-6580
▁3)$	-6581
▁Alf	-6582
▁tab	-6583
225,,	-6584
7.229	-6585
][0],	-6586
based	-6587
loons	-6588
lucky	-6589
▁Part	-6590
▁drop	-6591
▁epis	-6592
▁lazy	-6593
icious	-6594
▁Johan	-6595
▁guard	-6596
▁ready	-6597
▁sixth	-6598
▁users	-6599
changes	-6600
▁Freder	-6601
▁became	-6602
,28,0,0,	-6603
▁garland	-6604
▁outputs	-6605
▁reorder	-6606
▁walking	-6607
▁movement	-6608
consecutive	-6609
▁"2015-04-24	-6610
-%	-6611
LS	-6612
[[	-6613
wr	-6614
ов	-6615
150	-6616
24.	-6617
3-1	-6618
885	-6619
chr	-6620
imb	-6621
oon	-6622
}).	-6623
▁"#	-6624
▁).	-6625
▁dd	-6626
▁пр	-6627
3,1,	-6628
hand	-6629
osed	-6630
perm	-6631
trip	-6632
▁***	-6633
▁129	-6634
▁2)$	-6635
▁Jap	-6636
▁dir	-6637
ables	-6638
tasks	-6639
▁0.9,	-6640
▁cups	-6641
▁hist	-6642
▁jury	-6643
▁tele	-6644
▁told	-6645
member	-6646
▁Apple	-6647
▁Heidi	-6648
▁conve	-6649
▁enemy	-6650
▁major	-6651
between	-6652
contest	-6653
sausage	-6654
▁Stepan	-6655
▁affect	-6656
▁arrive	-6657
▁errors	-6658
▁modify	-6659
▁planks	-6660
▁prepar	-6661
▁pretty	-6662
balanced	-6663
▁popular	-6664
▁provide	-6665
▁currency	-6666
▁functions	-6667
▁generated	-6668
▁repeating	-6669
▁themselves	-6670
permutations	-6671
TG	-6672
iq	-6673
'},	-6674
(6,	-6675
1))	-6676
324	-6677
670	-6678
824	-6679
880	-6680
Two	-6681
]=0	-6682
alt	-6683
big	-6684
hop	-6685
mas	-6686
▁94	-6687
▁LI	-6688
']})	-6689
2487	-6690
3101	-6691
apes	-6692
comb	-6693
ense	-6694
leet	-6695
tery	-6696
▁199	-6697
▁214	-6698
▁2},	-6699
▁3).	-6700
agram	-6701
imary	-6702
orrow	-6703
▁AtCo	-6704
▁Ciel	-6705
▁atom	-6706
groups	-6707
urrent	-6708
▁chest	-6709
▁force	-6710
▁gifts	-6711
▁grams	-6712
▁offic	-6713
▁title	-6714
▁trave	-6715
cluster	-6716
▁Mishka	-6717
▁cycles	-6718
▁engine	-6719
▁ignore	-6720
▁scient	-6721
▁logical	-6722
▁magical	-6723
▁dequedef	-6724
▁frequency	-6725
▁appreciated	-6726
-)	-6727
3*	-6728
If	-6729
129	-6730
159	-6731
819	-6732
aim	-6733
lya	-6734
ona	-6735
},{	-6736
▁4-	-6737
▁ha	-6738
#.#.	-6739
()](	-6740
([4,	-6741
Mult	-6742
vent	-6743
▁22,	-6744
▁die	-6745
▁ids	-6746
▁pad	-6747
▁sco	-6748
.55,,	-6749
elebr	-6750
▁$2$-	-6751
▁$[4,	-6752
▁10))	-6753
▁Time	-6754
▁Year	-6755
▁bask	-6756
▁jobs	-6757
▁weap	-6758
cumsum	-6759
series	-6760
▁fence	-6761
▁minus	-6762
▁pract	-6763
▁recom	-6764
3,0,3,"	-6765
7.925,,	-6766
ational	-6767
special	-6768
▁celebr	-6769
▁ending	-6770
▁reason	-6771
▁respon	-6772
▁towers	-6773
clockwise	-6774
▁directed	-6775
▁possibly	-6776
▁signific	-6777
",".",".",".",".	-6778
=$	-6779
At	-6780
vv	-6781
')]	-6782
)*(	-6783
,0,	-6784
166	-6785
280	-6786
374	-6787
={}	-6788
BBB	-6789
Rec	-6790
arp	-6791
avi	-6792
kth	-6793
mul	-6794
oke	-6795
ucl	-6796
▁2}	-6797
▁9)	-6798
▁AC	-6799
▁_,	-6800
▁cb	-6801
▁mm	-6802
▁vi	-6803
(1<<	-6804
Dist	-6805
chef	-6806
▁Str	-6807
▁fly	-6808
▁inc	-6809
▁{2,	-6810
}{2}$	-6811
▁10^3	-6812
▁maxx	-6813
▁onto	-6814
▁plat	-6815
neighb	-6816
probab	-6817
travel	-6818
undred	-6819
vertex	-6820
▁Vanya	-6821
▁calls	-6822
▁shove	-6823
▁stock	-6824
▁techn	-6825
▁worth	-6826
[::-1]:	-6827
anguage	-6828
atasets	-6829
covered	-6830
▁Linear	-6831
▁broken	-6832
▁disapp	-6833
▁scaler	-6834
function	-6835
▁divides	-6836
▁mistake	-6837
▁randomly	-6838
0123456789	-6839
Regression	-6840
▁mentioned	-6841
▁GridSearch	-6842
▁Description	-6843
/3	-6844
6.	-6845
Bl	-6846
DP	-6847
Id	-6848
ux	-6849
"]]	-6850
260	-6851
384	-6852
399	-6853
605	-6854
610	-6855
72,	-6856
820	-6857
829	-6858
=1$	-6859
=10	-6860
ANS	-6861
All	-6862
])]	-6863
gry	-6864
iro	-6865
nec	-6866
zes	-6867
▁Om	-6868
▁Pa	-6869
2.0,	-6870
face	-6871
hour	-6872
lete	-6873
mail	-6874
nine	-6875
swap	-6876
vest	-6877
▁(50	-6878
▁40,	-6879
▁50)	-6880
▁5]$	-6881
▁Dec	-6882
▁toy	-6883
▁var	-6884
▁{0:	-6885
ugust	-6886
▁'1':	-6887
▁1}^{	-6888
▁Karl	-6889
▁elem	-6890
▁foot	-6891
▁host	-6892
▁ohms	-6893
combin	-6894
▁seems	-6895
▁tells	-6896
▁touch	-6897
▁union	-6898
▁usual	-6899
optimal	-6900
▁Christ	-6901
▁allows	-6902
▁cursor	-6903
▁ground	-6904
triangle	-6905
▁holding	-6906
▁improve	-6907
▁passing	-6908
▁winning	-6909
Takahashi	-6910
Timestamp	-6911
▁trailing	-6912
▁$998244353	-6913
▁statements	-6914
1-	-6915
?"	-6916
ln	-6917
nm	-6918
)',	-6919
167	-6920
344	-6921
711	-6922
884	-6923
])%	-6924
ags	-6925
▁ip	-6926
▁|=	-6927
("".	-6928
Left	-6929
STON	-6930
hash	-6931
ried	-6932
▁"()	-6933
▁"01	-6934
▁-3,	-6935
▁135	-6936
▁Val	-6937
▁ful	-6938
▁lib	-6939
ckets	-6940
light	-6941
▁aren	-6942
ration	-6943
▁10^18	-6944
▁10^3$	-6945
▁scale	-6946
▁socks	-6947
7,0,3,"	-6948
▁Remove	-6949
▁coinci	-6950
▁hidden	-6951
▁signed	-6952
▁spread	-6953
,25,0,0,	-6954
7.2292,,	-6955
▁details	-6956
▁develop	-6957
▁quality	-6958
▁subtree	-6959
▁travels	-6960
▁continues	-6961
▁perimeter	-6962
▁vectorizer	-6963
";	-6964
8]	-6965
\}	-6966
▁~	-6967
126	-6968
620	-6969
684	-6970
779	-6971
837	-6972
8],	-6973
Car	-6974
buy	-6975
inc	-6976
nil	-6977
rec	-6978
unk	-6979
uro	-6980
▁#3	-6981
▁76	-6982
▁77	-6983
▁ds	-6984
▁nd	-6985
????	-6986
rick	-6987
yscr	-6988
▁$20	-6989
▁0])	-6990
▁104	-6991
▁18:	-6992
▁1].	-6993
▁5),	-6994
▁8],	-6995
▁mus	-6996
ilver	-6997
merge	-6998
pared	-6999
▁(-1,	-7000
▁rail	-7001
▁rock	-7002
▁snow	-7003
ribute	-7004
tensor	-7005
|■■|■■	-7006
▁avoid	-7007
▁cause	-7008
▁cheap	-7009
▁forms	-7010
▁outer	-7011
heappop	-7012
initely	-7013
▁......	-7014
▁2015-1	-7015
▁Nastya	-7016
▁access	-7017
▁attend	-7018
▁couldn	-7019
▁online	-7020
▁showing	-7021
▁approach	-7022
▁circular	-7023
▁coincide	-7024
▁exponent	-7025
▁requires	-7026
expression	-7027
▁properties	-7028
▁concatenate	-7029
▁multiplication	-7030
▁lexicographical	-7031
1*	-7032
1_	-7033
Mr	-7034
да	-7035
ру	-7036
154	-7037
187	-7038
317	-7039
455	-7040
699	-7041
700	-7042
855	-7043
Per	-7044
nth	-7045
ool	-7046
рок	-7047
▁da	-7048
()])	-7049
3],[	-7050
8.66	-7051
From	-7052
anas	-7053
imin	-7054
just	-7055
oser	-7056
▁2])	-7057
▁===	-7058
▁Its	-7059
▁Wal	-7060
▁dro	-7061
▁iss	-7062
**0.5	-7063
ieves	-7064
▁-100	-7065
▁Math	-7066
▁gaps	-7067
▁paid	-7068
ifiers	-7069
iverse	-7070
limits	-7071
usters	-7072
▁2898.	-7073
▁Tanya	-7074
▁chose	-7075
▁heads	-7076
▁lamps	-7077
▁queen	-7078
▁shelf	-7079
▁songs	-7080
samples	-7081
▁attemp	-7082
▁leader	-7083
▁legend	-7084
▁manner	-7085
▁possib	-7086
▁rooted	-7087
▁10^9$),	-7088
▁existing	-7089
▁performs	-7090
▁prepared	-7091
▁sections	-7092
▁treasure	-7093
▁validate	-7094
substrings	-7095
▁[1,2,3,4,	-7096
▁alternate	-7097
▁buildings	-7098
▁iteration	-7099
▁sometimes	-7100
▁complexity	-7101
distribution	-7102
▁alternating	-7103
▁coefficient	-7104
(9	-7105
Mc	-7106
jj	-7107
tw	-7108
ож	-7109
']]	-7110
+2,	-7111
-1-	-7112
10.	-7113
137	-7114
254	-7115
301	-7116
405	-7117
770	-7118
9,,	-7119
=-1	-7120
ism	-7121
mar	-7122
ola	-7123
ест	-7124
▁ms	-7125
▁sv	-7126
+1),	-7127
453,	-7128
aver	-7129
cons	-7130
dims	-7131
ners	-7132
span	-7133
▁($\	-7134
▁0))	-7135
▁3.5	-7136
▁4])	-7137
▁ALL	-7138
▁lan	-7139
▁mer	-7140
▁pts	-7141
7.854	-7142
958,,	-7143
]==0:	-7144
acaba	-7145
aring	-7146
codes	-7147
ember	-7148
essor	-7149
ledge	-7150
phant	-7151
rated	-7152
ravel	-7153
▁$0$,	-7154
▁'201	-7155
▁Byte	-7156
▁Dist	-7157
▁cool	-7158
▁magn	-7159
issors	-7160
ources	-7161
ourite	-7162
▁often	-7163
▁resid	-7164
▁slice	-7165
7.225,,	-7166
divisor	-7167
parents	-7168
▁anyone	-7169
▁charge	-7170
▁public	-7171
,18,0,0,	-7172
7.8542,,	-7173
8.6625,,	-7174
optimize	-7175
problems	-7176
▁deleted	-7177
▁groupby	-7178
▁learned	-7179
▁package	-7180
▁periods	-7181
▁uniform	-7182
beautiful	-7183
▁presents	-7184
extraction	-7185
▁Frederick	-7186
▁favourite	-7187
▁participate	-7188
$\	-7189
CT	-7190
IB	-7191
/56	-7192
/59	-7193
164	-7194
255	-7195
274	-7196
38.	-7197
624	-7198
634	-7199
635	-7200
834	-7201
887	-7202
Bin	-7203
agg	-7204
bad	-7205
bed	-7206
got	-7207
imo	-7208
sim	-7209
}{\	-7210
▁:)	-7211
▁IP	-7212
▁rh	-7213
/570	-7214
Fact	-7215
[-2]	-7216
iliy	-7217
iris	-7218
▁"-1	-7219
▁360	-7220
▁7$.	-7221
▁Log	-7222
▁har	-7223
(10):	-7224
books	-7225
break	-7226
inger	-7227
▁0]],	-7228
▁3]$,	-7229
▁loss	-7230
ichard	-7231
spaces	-7232
▁Santa	-7233
▁parse	-7234
▁plans	-7235
▁punct	-7236
▁stays	-7237
▁wheel	-7238
bracket	-7239
playing	-7240
tention	-7241
▁listed	-7242
▁proces	-7243
▁trains	-7244
▁depends	-7245
▁purpose	-7246
▁Moreover	-7247
▁balloons	-7248
▁chemical	-7249
▁platform	-7250
▁scenario	-7251
irectional	-7252
▁Operation	-7253
▁numerical	-7254
!)	-7255
0}	-7256
=\	-7257
Fe	-7258
OW	-7259
vu	-7260
▁б	-7261
()`	-7262
114	-7263
2':	-7264
297	-7265
5",	-7266
809	-7267
810	-7268
ghi	-7269
hor	-7270
ker	-7271
neg	-7272
oki	-7273
omp	-7274
rac	-7275
sol	-7276
▁"4	-7277
▁2;	-7278
▁3·	-7279
▁Sy	-7280
▁])	-7281
▁rd	-7282
▁tc	-7283
+1]:	-7284
-1),	-7285
4,1,	-7286
8474	-7287
Code	-7288
Line	-7289
icro	-7290
mbed	-7291
raft	-7292
rawn	-7293
same	-7294
site	-7295
ware	-7296
▁($3	-7297
▁aba	-7298
▁bfs	-7299
▁cha	-7300
▁lie	-7301
paths	-7302
world	-7303
▁0.5)	-7304
▁2]$,	-7305
▁bran	-7306
▁live	-7307
Length	-7308
cludes	-7309
should	-7310
▁0.023	-7311
▁Maria	-7312
▁Multi	-7313
▁coach	-7314
▁glass	-7315
▁lasts	-7316
▁loops	-7317
Playing	-7318
onocarp	-7319
visited	-7320
▁0.1687	-7321
▁almost	-7322
▁chairs	-7323
▁commun	-7324
▁recipe	-7325
▁records	-7326
characters	-7327
▁introduce	-7328
▁knowledge	-7329
▁palindromic	-7330
%3	-7331
4*	-7332
ва	-7333
ей	-7334
/15	-7335
144	-7336
189	-7337
450	-7338
869	-7339
997	-7340
=1:	-7341
ene	-7342
hab	-7343
ric	-7344
tem	-7345
yle	-7346
{1,	-7347
▁'+	-7348
▁47	-7349
▁из	-7350
▁од	-7351
▁ст	-7352
-1}$	-7353
125,	-7354
22.0	-7355
Part	-7356
mode	-7357
olor	-7358
▁"11	-7359
▁$9$	-7360
▁($-	-7361
▁BIT	-7362
▁Day	-7363
▁Ern	-7364
▁GCD	-7365
▁lcm	-7366
▁nan	-7367
Digit	-7368
block	-7369
house	-7370
mooth	-7371
users	-7372
water	-7373
▁1100	-7374
▁Mary	-7375
▁ever	-7376
▁news	-7377
Little	-7378
mitted	-7379
player	-7380
polate	-7381
▁Denis	-7382
▁Iahub	-7383
▁Total	-7384
▁World	-7385
▁catch	-7386
▁serve	-7387
▁stair	-7388
▁study	-7389
.5,0,0,	-7390
ontally	-7391
▁Samuel	-7392
▁append	-7393
▁bigger	-7394
▁enters	-7395
▁expect	-7396
▁family	-7397
▁resist	-7398
▁strong	-7399
,19,0,0,	-7400
,26,0,0,	-7401
,32,0,0,	-7402
Variable	-7403
▁Current	-7404
▁earlier	-7405
▁entered	-7406
▁heappop	-7407
▁noticed	-7408
▁persons	-7409
▁usually	-7410
positions	-7411
▁1.000000	-7412
▁district	-7413
▁includes	-7414
▁mountain	-7415
▁patterns	-7416
▁1980-01-0	-7417
▁incorrect	-7418
▁preferred	-7419
▁processor	-7420
▁inversions	-7421
▁respective	-7422
+"	-7423
9\	-7424
9]	-7425
9}	-7426
BA	-7427
CE	-7428
Hi	-7429
ND	-7430
SA	-7431
gb	-7432
rx	-7433
yi	-7434
|}	-7435
10:	-7436
139	-7437
140	-7438
165	-7439
279	-7440
287	-7441
310	-7442
4',	-7443
611	-7444
826	-7445
BIT	-7446
]).	-7447
how	-7448
isc	-7449
lon	-7450
rey	-7451
zip	-7452
▁1`	-7453
▁57	-7454
▁AL	-7455
▁Py	-7456
▁[-	-7457
▁na	-7458
Dict	-7459
[1]:	-7460
alty	-7461
aped	-7462
omat	-7463
pack	-7464
}$).	-7465
▁-10	-7466
▁24,	-7467
▁5])	-7468
▁Acc	-7469
▁Bor	-7470
▁PCA	-7471
▁Tom	-7472
▁ago	-7473
▁ass	-7474
▁lat	-7475
▁пер	-7476
▁чис	-7477
([[0,	-7478
0000:	-7479
[-1]:	-7480
caten	-7481
never	-7482
▁1]$.	-7483
▁3000	-7484
▁Have	-7485
▁chat	-7486
▁feel	-7487
▁maxi	-7488
▁west	-7489
hedron	-7490
linear	-7491
▁*****	-7492
▁Right	-7493
▁picks	-7494
▁tries	-7495
[::-1])	-7496
findall	-7497
▁Notice	-7498
▁bounds	-7499
▁bucket	-7500
▁living	-7501
▁skyscr	-7502
▁-------	-7503
▁Contest	-7504
▁control	-7505
▁entries	-7506
▁sitting	-7507
fficients	-7508
▁composed	-7509
▁dominoes	-7510
▁neighbor	-7511
▁transfer	-7512
▁destroyed	-7513
▁endpoints	-7514
,6	-7515
7$	-7516
]%	-7517
];	-7518
gl	-7519
ko	-7520
-11	-7521
404	-7522
459	-7523
697	-7524
===	-7525
Exp	-7526
aus	-7527
bel	-7528
iev	-7529
iou	-7530
mak	-7531
ned	-7532
sep	-7533
▁':	-7534
▁1\	-7535
▁ll	-7536
LIST	-7537
With	-7538
])):	-7539
alks	-7540
buff	-7541
cube	-7542
draw	-7543
piec	-7544
ract	-7545
scat	-7546
▁(70	-7547
▁011	-7548
▁179	-7549
▁Len	-7550
▁fut	-7551
▁joy	-7552
24435	-7553
occur	-7554
scale	-7555
▁1234	-7556
▁2015	-7557
▁3)$,	-7558
▁Aoki	-7559
▁Date	-7560
▁args	-7561
▁coup	-7562
▁east	-7563
▁fuel	-7564
▁gain	-7565
▁life	-7566
▁maze	-7567
▁milk	-7568
▁spot	-7569
▁stor	-7570
▁wire	-7571
Object	-7572
resses	-7573
termin	-7574
undant	-7575
▁Using	-7576
▁bulbs	-7577
▁drawn	-7578
▁katas	-7579
▁patch	-7580
▁pixel	-7581
▁sheep	-7582
\,000$)	-7583
scatter	-7584
tensors	-7585
▁10^9),	-7586
▁Comput	-7587
▁buying	-7588
▁device	-7589
▁famous	-7590
▁flight	-7591
▁manage	-7592
▁offers	-7593
▁ranges	-7594
▁served	-7595
▁snakes	-7596
▁supply	-7597
▁tables	-7598
▁unlock	-7599
students	-7600
▁arrival	-7601
▁indexed	-7602
▁islands	-7603
▁Remember	-7604
▁interpre	-7605
▁visiting	-7606
▁delicious	-7607
▁formatted	-7608
▁vertically	-7609
▁punctuation	-7610
▁horizontally	-7611
*,	-7612
8$	-7613
RL	-7614
UU	-7615
hu	-7616
}-	-7617
+7.	-7618
,0)	-7619
.0.	-7620
0),	-7621
019	-7622
2).	-7623
3':	-7624
3):	-7625
334	-7626
637	-7627
889	-7628
NOT	-7629
cdf	-7630
eps	-7631
hib	-7632
isk	-7633
▁1/	-7634
▁51	-7635
▁Ro	-7636
▁sq	-7637
▁ta	-7638
▁то	-7639
3.0,	-7640
83,,	-7641
ABCD	-7642
free	-7643
lend	-7644
remo	-7645
sets	-7646
торо	-7647
▁"00	-7648
▁12:	-7649
▁2$.	-7650
▁Mar	-7651
▁`-1	-7652
▁art	-7653
▁ens	-7654
▁vac	-7655
▁wat	-7656
.....	-7657
abbit	-7658
apers	-7659
izzas	-7660
▁'0':	-7661
▁1010	-7662
▁2018	-7663
▁Mart	-7664
▁Poly	-7665
▁[20,	-7666
▁bins	-7667
▁dots	-7668
▁fair	-7669
▁hill	-7670
▁leap	-7671
▁nine	-7672
5,1,0,	-7673
9,1,0,	-7674
istics	-7675
loaded	-7676
oubles	-7677
▁basic	-7678
▁climb	-7679
▁entry	-7680
▁exams	-7681
▁extre	-7682
▁grass	-7683
▁hello	-7684
1,1,1,"	-7685
5,0,3,"	-7686
6,0,3,"	-7687
arrival	-7688
ndarray	-7689
ordered	-7690
seconds	-7691
▁August	-7692
▁active	-7693
▁expand	-7694
▁forest	-7695
▁intern	-7696
▁recogn	-7697
Consider	-7698
segments	-7699
▁$10^5$.	-7700
▁Returns	-7701
▁bananas	-7702
▁blocked	-7703
▁library	-7704
▁unknown	-7705
,,0,0,349	-7706
▁opponent	-7707
Impossible	-7708
▁completed	-7709
10987654321	-7710
subsequences	-7711
▁$998244353$.	-7712
▁transformation	-7713
''	-7714
1`	-7715
2`	-7716
Sm	-7717
aj	-7718
uu	-7719
(((	-7720
(1-	-7721
-06	-7722
.2,	-7723
444	-7724
619	-7725
710	-7726
="\	-7727
=5,	-7728
Ans	-7729
[0,	-7730
_1)	-7731
kar	-7732
ать	-7733
▁Ne	-7734
▁Su	-7735
▁TP	-7736
▁hh	-7737
▁ir	-7738
▁ri	-7739
▁|1	-7740
([5,	-7741
+7$.	-7742
664,	-7743
][::	-7744
ival	-7745
ombs	-7746
safe	-7747
▁010	-7748
▁114	-7749
▁Car	-7750
▁DNA	-7751
▁ber	-7752
▁hop	-7753
▁lad	-7754
▁sem	-7755
▁via	-7756
▁{2}	-7757
(100,	-7758
[1:]:	-7759
chess	-7760
ishop	-7761
ogram	-7762
▁Devu	-7763
▁boss	-7764
▁club	-7765
▁fire	-7766
▁surv	-7767
▁tour	-7768
▁toys	-7769
yellow	-7770
▁Trans	-7771
▁bears	-7772
▁bonus	-7773
▁dates	-7774
▁faces	-7775
▁fully	-7776
▁spect	-7777
▁video	-7778
results	-7779
straint	-7780
▁0.0190	-7781
2016-05-	-7782
children	-7783
subplots	-7784
▁1:-----	-7785
▁evening	-7786
▁instant	-7787
▁manager	-7788
▁matched	-7789
▁suppose	-7790
▁waiting	-7791
▁weapons	-7792
▁workers	-7793
▁evaluate	-7794
▁learning	-7795
▁produced	-7796
coordinate	-7797
▁locations	-7798
▁regardless	-7799
▁whitespace	-7800
999999999999	-7801
combinations	-7802
▁centimeters	-7803
▁replacement	-7804
)>	-7805
BS	-7806
HE	-7807
Is	-7808
Py	-7809
^0	-7810
ти	-7811
▁−	-7812
**:	-7813
169	-7814
204	-7815
360	-7816
626	-7817
660	-7818
750	-7819
817	-7820
899	-7821
SED	-7822
]]]	-7823
bac	-7824
lip	-7825
uka	-7826
uns	-7827
vin	-7828
▁"*	-7829
▁41	-7830
▁:]	-7831
▁AT	-7832
▁Te	-7833
▁[2	-7834
▁[5	-7835
▁mp	-7836
▁px	-7837
▁ur	-7838
▁ys	-7839
▁ко	-7840
▁но	-7841
-1]+	-7842
2-31	-7843
2587	-7844
Test	-7845
fort	-7846
otic	-7847
sell	-7848
ules	-7849
▁137	-7850
▁3])	-7851
▁Bit	-7852
▁May	-7853
▁`2`	-7854
▁ctr	-7855
▁ham	-7856
▁kit	-7857
▁под	-7858
][0])	-7859
aeiou	-7860
major	-7861
phone	-7862
▁$-1$	-7863
▁Data	-7864
▁Edge	-7865
▁Igor	-7866
▁danc	-7867
▁fold	-7868
▁hasn	-7869
▁meas	-7870
▁prob	-7871
8,1,0,	-7872
concat	-7873
period	-7874
▁juice	-7875
▁teach	-7876
▁towns	-7877
average	-7878
because	-7879
isdigit	-7880
minimal	-7881
uniform	-7882
▁Author	-7883
▁Recall	-7884
▁Robert	-7885
▁basket	-7886
▁boring	-7887
▁conven	-7888
▁tracks	-7889
Negative	-7890
otential	-7891
▁Replace	-7892
▁anagram	-7893
▁attacks	-7894
▁rotated	-7895
▁swapped	-7896
▁towards	-7897
lowercase	-7898
▁Language	-7899
▁rotation	-7900
-1,-1,-1):	-7901
▁According	-7902
▁component	-7903
▁considers	-7904
▁relations	-7905
▁ingredient	-7906
▁subsegments	-7907
▁coefficients	-7908
)<	-7909
)?	-7910
62	-7911
DE	-7912
ем	-7913
190	-7914
2-2	-7915
57,	-7916
833	-7917
Add	-7918
Bar	-7919
MIN	-7920
[4]	-7921
`).	-7922
lia	-7923
pto	-7924
▁Up	-7925
▁ba	-7926
▁bc	-7927
▁hp	-7928
▁md	-7929
▁ра	-7930
+1+1	-7931
1001	-7932
123,	-7933
5,2,	-7934
547,	-7935
8888	-7936
[1].	-7937
iger	-7938
ista	-7939
keep	-7940
mbox	-7941
norm	-7942
only	-7943
▁(2*	-7944
▁Cel	-7945
▁Gre	-7946
6,26.	-7947
=1}^{	-7948
After	-7949
[0]),	-7950
abets	-7951
clear	-7952
magic	-7953
nment	-7954
queue	-7955
▁$(4,	-7956
▁(10,	-7957
▁10),	-7958
▁Ruby	-7959
▁bulb	-7960
▁fine	-7961
▁forb	-7962
▁func	-7963
▁hits	-7964
▁vals	-7965
4,1,0,	-7966
7,1,0,	-7967
7.25,,	-7968
abeled	-7969
ameter	-7970
argare	-7971
expand	-7972
lendar	-7973
magine	-7974
origin	-7975
vented	-7976
▁.....	-7977
▁Misha	-7978
▁Start	-7979
▁alive	-7980
▁analy	-7981
▁meter	-7982
▁north	-7983
▁prote	-7984
▁slime	-7985
▁symme	-7986
nonzero	-7987
▁Alfred	-7988
▁Follow	-7989
▁asking	-7990
▁extens	-7991
▁mother	-7992
,,0,0,26	-7993
,20,0,0,	-7994
,23,0,0,	-7995
,27,0,0,	-7996
,36,0,0,	-7997
adjacent	-7998
▁2:-----	-7999
▁advance	-8000
▁animals	-8001
▁combine	-8002
▁precise	-8003
▁ratings	-8004
▁triples	-8005
▁vectors	-8006
▁coloring	-8007
▁indexing	-8008
▁documents	-8009
▁estimated	-8010
▁transport	-8011
probability	-8012
▁2015-04-24	-8013
▁descending	-8014
▁independently	-8015
-5	-8016
AL	-8017
Mt	-8018
Pe	-8019
\\	-8020
^^	-8021
nb	-8022
qq	-8023
yu	-8024
する	-8025
10"	-8026
665	-8027
709	-8028
715	-8029
749	-8030
775	-8031
Nan	-8032
Rob	-8033
XXX	-8034
ahm	-8035
eds	-8036
vec	-8037
▁92	-8038
▁98	-8039
▁Go	-8040
▁Ob	-8041
▁`7	-8042
([3,	-8043
)-1)	-8044
+1:]	-8045
-1]*	-8046
234,	-8047
city	-8048
ders	-8049
evin	-8050
mers	-8051
ouri	-8052
some	-8053
suff	-8054
team	-8055
▁(""	-8056
▁103	-8057
▁165	-8058
▁Par	-8059
▁[-1	-8060
▁cry	-8061
▁wel	-8062
Apple	-8063
ading	-8064
igned	-8065
▁0000	-8066
▁10],	-8067
▁Just	-8068
▁bags	-8069
▁cows	-8070
-----+	-8071
Create	-8072
ampion	-8073
ession	-8074
though	-8075
xticks	-8076
▁Happy	-8077
▁Robot	-8078
▁bring	-8079
▁equip	-8080
perfect	-8081
▁Johnny	-8082
▁cipher	-8083
▁future	-8084
▁mirror	-8085
▁shield	-8086
▁social	-8087
▁solves	-8088
▁stable	-8089
▁unable	-8090
Complete	-8091
alphabet	-8092
ferences	-8093
▁labeled	-8094
▁moments	-8095
▁pointer	-8096
▁various	-8097
▁discount	-8098
▁encoding	-8099
▁invented	-8100
▁planning	-8101
coordinates	-8102
▁ValueError	-8103
▁multiplied	-8104
▁parenthesis	-8105
▁neighbouring	-8106
▁defaultdictdef	-8107
(6	-8108
.'	-8109
2+	-8110
ET	-8111
[_	-8112
dc	-8113
{2	-8114
▁т	-8115
":"	-8116
("1	-8117
354	-8118
617	-8119
8-1	-8120
828	-8121
ABC	-8122
Gre	-8123
SVC	-8124
dog	-8125
fen	-8126
ief	-8127
oom	-8128
ных	-8129
ьно	-8130
▁3*	-8131
▁6]	-8132
▁84	-8133
▁rs	-8134
▁sb	-8135
▁sz	-8136
':['	-8137
)+1)	-8138
27.0	-8139
3309	-8140
Mode	-8141
acob	-8142
ffee	-8143
hatt	-8144
lens	-8145
▁0.1	-8146
▁250	-8147
▁35,	-8148
▁Her	-8149
▁aaa	-8150
▁seg	-8151
)-1):	-8152
Label	-8153
[0]))	-8154
cakes	-8155
cycle	-8156
idean	-8157
ivery	-8158
▁15],	-8159
▁Leha	-8160
▁Pick	-8161
▁[1],	-8162
▁`[1,	-8163
▁defe	-8164
▁lens	-8165
▁pawn	-8166
.0,27.	-8167
Python	-8168
hattan	-8169
integr	-8170
nother	-8171
people	-8172
▁$10^{	-8173
▁=====	-8174
▁drive	-8175
▁liter	-8176
▁shore	-8177
▁spots	-8178
▁tired	-8179
resting	-8180
toarray	-8181
ыходные	-8182
▁Points	-8183
▁breaks	-8184
▁forgot	-8185
▁listen	-8186
▁stored	-8187
▁summer	-8188
▁tested	-8189
reversed	-8190
uclidean	-8191
▁10**9+7	-8192
▁Vasiliy	-8193
▁arrives	-8194
▁clarity	-8195
▁numeric	-8196
▁outcome	-8197
rectangle	-8198
▁appeared	-8199
▁assemble	-8200
▁electric	-8201
▁finishes	-8202
▁replaces	-8203
▁teleport	-8204
▁definitely	-8205
▁constructed	-8206
▁understanding	-8207
(8	-8208
82	-8209
RA	-8210
nx	-8211
**,	-8212
11.	-8213
185	-8214
2)$	-8215
377	-8216
555	-8217
629	-8218
823	-8219
Pet	-8220
ULL	-8221
_3$	-8222
aff	-8223
guy	-8224
ium	-8225
lcm	-8226
▁'9	-8227
▁3}	-8228
▁67	-8229
▁6:	-8230
▁за	-8231
(4):	-8232
Char	-8233
Spec	-8234
TIME	-8235
anao	-8236
coll	-8237
flip	-8238
▁'*'	-8239
▁(6,	-8240
▁195	-8241
▁3$.	-8242
▁Ext	-8243
▁Lou	-8244
▁Wil	-8245
▁`3`	-8246
▁cin	-8247
▁tie	-8248
"")",	-8249
cover	-8250
ester	-8251
ifted	-8252
lyona	-8253
ories	-8254
store	-8255
▁1760	-8256
▁2]$.	-8257
▁Luck	-8258
▁cros	-8259
▁fail	-8260
▁span	-8261
Arrays	-8262
ahmoud	-8263
ensity	-8264
▁Index	-8265
▁bases	-8266
▁cents	-8267
▁chips	-8268
▁mouse	-8269
▁param	-8270
▁shots	-8271
▁truth	-8272
8,0,3,"	-8273
factors	-8274
▁Result	-8275
▁caught	-8276
▁cosine	-8277
▁dollar	-8278
▁invite	-8279
▁proved	-8280
▁tunnel	-8281
,35,0,0,	-8282
duration	-8283
vertices	-8284
▁Patrick	-8285
▁chaotic	-8286
▁convers	-8287
▁equally	-8288
▁magnets	-8289
▁service	-8290
▁village	-8291
▁Complete	-8292
▁Elephant	-8293
▁converts	-8294
▁ordering	-8295
▁explained	-8296
defaultdict	-8297
▁University	-8298
▁experience	-8299
.`	-8300
CM	-8301
En	-8302
Fb	-8303
~\	-8304
ес	-8305
ие	-8306
ле	-8307
▁ц	-8308
();	-8309
304	-8310
5])	-8311
623	-8312
636	-8313
6],	-8314
721	-8315
795	-8316
801	-8317
814	-8318
835	-8319
<=1	-8320
AME	-8321
OSS	-8322
geq	-8323
nam	-8324
oul	-8325
sal	-8326
vil	-8327
▁"3	-8328
▁"<	-8329
▁(|	-8330
▁\%	-8331
▁^=	-8332
▁ns	-8333
()).	-8334
([[1	-8335
+1],	-8336
2,0,	-8337
2018	-8338
21-0	-8339
IBLE	-8340
[0]+	-8341
\}$,	-8342
ivot	-8343
orph	-8344
▁"",	-8345
▁$1\	-8346
▁10]	-8347
▁233	-8348
▁4).	-8349
▁Fam	-8350
▁Pol	-8351
▁slo	-8352
▁vot	-8353
▁{3}	-8354
('0')	-8355
('1')	-8356
==1):	-8357
[1]))	-8358
cting	-8359
dists	-8360
grade	-8361
multi	-8362
ology	-8363
usual	-8364
▁$6$,	-8365
▁Oleg	-8366
▁[(0,	-8367
▁asso	-8368
▁peak	-8369
▁site	-8370
Points	-8371
abbits	-8372
locity	-8373
▁11111	-8374
▁Coder	-8375
▁Their	-8376
▁ascii	-8377
▁chron	-8378
▁files	-8379
▁sieve	-8380
duction	-8381
▁Walter	-8382
▁angles	-8383
▁consum	-8384
▁domino	-8385
▁inform	-8386
▁lesson	-8387
21-04-10	-8388
atherine	-8389
concaten	-8390
▁Richard	-8391
▁corners	-8392
▁extreme	-8393
▁hundred	-8394
▁repeats	-8395
▁squared	-8396
▁Olympiad	-8397
▁creating	-8398
▁probably	-8399
▁supposed	-8400
alindromic	-8401
▁departure	-8402
▁exceeding	-8403
▁exclusive	-8404
▁forbidden	-8405
▁indicates	-8406
▁constraint	-8407
▁conversion	-8408
▁significant	-8409
(?	-8410
Te	-8411
gd	-8412
hp	-8413
lb	-8414
nv	-8415
va	-8416
#..	-8417
(',	-8418
-3]	-8419
340	-8420
394	-8421
650	-8422
669	-8423
7-0	-8424
759	-8425
909	-8426
]]:	-8427
aws	-8428
ech	-8429
hot	-8430
iar	-8431
mes	-8432
ole	-8433
лед	-8434
▁{\	-8435
1406	-8436
273,	-8437
333,	-8438
3515	-8439
Mary	-8440
Word	-8441
[2][	-8442
aron	-8443
jump	-8444
onic	-8445
requ	-8446
uren	-8447
▁!!!	-8448
▁'#'	-8449
▁'?'	-8450
▁12.	-8451
▁`10	-8452
▁bow	-8453
▁jun	-8454
▁pus	-8455
▁ray	-8456
▁tag	-8457
1231,	-8458
Valid	-8459
][1],	-8460
addus	-8461
berry	-8462
cient	-8463
heres	-8464
idges	-8465
inder	-8466
uckoo	-8467
using	-8468
▁"1",	-8469
▁Tree	-8470
▁quad	-8471
▁wood	-8472
mended	-8473
simple	-8474
▁Pasha	-8475
▁Three	-8476
▁chars	-8477
▁gover	-8478
▁grand	-8479
▁recur	-8480
OSSIBLE	-8481
itional	-8482
▁2012-1	-8483
▁MinMax	-8484
▁depend	-8485
▁detect	-8486
▁diagon	-8487
▁dinner	-8488
▁editor	-8489
▁magnet	-8490
▁potato	-8491
adecimal	-8492
ikipedia	-8493
pipeline	-8494
▁AtCoder	-8495
▁Haskell	-8496
▁borders	-8497
▁bouquet	-8498
▁complic	-8499
▁shovels	-8500
integrate	-8501
▁Monocarp	-8502
▁identify	-8503
▁simplify	-8504
▁Elizabeth	-8505
▁alphabets	-8506
▁Counterdef	-8507
▁challenges	-8508
▁consonants	-8509
▁mathematics	-8510
▁restaurants	-8511
Cr	-8512
Ed	-8513
XY	-8514
[3	-8515
bd	-8516
la	-8517
uo	-8518
|.	-8519
ез	-8520
1,,	-8521
124	-8522
385	-8523
601	-8524
613	-8525
633	-8526
639	-8527
689	-8528
7",	-8529
7,,	-8530
744	-8531
804	-8532
AMP	-8533
Bob	-8534
Set	-8535
_4,	-8536
blo	-8537
cel	-8538
dic	-8539
egg	-8540
iak	-8541
ior	-8542
rat	-8543
une	-8544
▁AM	-8545
▁Br	-8546
▁Sn	-8547
▁ZS	-8548
////	-8549
000.	-8550
2]],	-8551
75,,	-8552
766,	-8553
Inte	-8554
TGFb	-8555
Task	-8556
Type	-8557
bott	-8558
chen	-8559
nson	-8560
▁"19	-8561
▁1)-	-8562
▁133	-8563
▁187	-8564
▁231	-8565
▁6),	-8566
▁Ada	-8567
▁Ann	-8568
▁Gen	-8569
▁Les	-8570
▁Sol	-8571
▁[10	-8572
▁ear	-8573
▁fan	-8574
▁fil	-8575
▁flg	-8576
▁hal	-8577
▁hum	-8578
-1)//	-8579
alice	-8580
isnan	-8581
joint	-8582
mouse	-8583
▁200,	-8584
▁Plot	-8585
▁[[0]	-8586
▁```[	-8587
▁burn	-8588
▁fits	-8589
▁norm	-8590
▁tram	-8591
▁wish	-8592
normal	-8593
▁$\{1,	-8594
▁'2019	-8595
▁Manao	-8596
▁micro	-8597
▁typed	-8598
9,0,3,"	-8599
asarray	-8600
ibrated	-8601
▁Alyona	-8602
▁Player	-8603
▁Sergey	-8604
▁copies	-8605
▁layers	-8606
▁season	-8607
▁wonder	-8608
,29,0,0,	-8609
complete	-8610
▁Station	-8611
▁amounts	-8612
▁density	-8613
▁visible	-8614
▁keywords	-8615
▁swapping	-8616
▁computers	-8617
▁increased	-8618
▁multiples	-8619
▁particles	-8620
▁preparing	-8621
▁replacing	-8622
▁calculating	-8623
▁MinMaxScaler	-8624
▁bidirectional	-8625
▁chronological	-8626
/(	-8627
FS	-8628
IJ	-8629
vs	-8630
ую	-8631
++.	-8632
.5)	-8633
004	-8634
136	-8635
294	-8636
=0$	-8637
=3$	-8638
Dav	-8639
Net	-8640
]=(	-8641
ama	-8642
apt	-8643
ara	-8644
avy	-8645
eks	-8646
har	-8647
irt	-8648
jkl	-8649
oog	-8650
urv	-8651
▁5}	-8652
▁87	-8653
▁8]	-8654
▁ED	-8655
▁RE	-8656
▁cv	-8657
▁ig	-8658
▁mk	-8659
▁},	-8660
▁вы	-8661
([2,	-8662
([[[	-8663
))):	-8664
)[0]	-8665
0005	-8666
5],[	-8667
Over	-8668
cing	-8669
enia	-8670
hood	-8671
uary	-8672
unit	-8673
▁5$,	-8674
▁BBB	-8675
▁Red	-8676
▁SVC	-8677
▁Whe	-8678
▁foo	-8679
▁gal	-8680
▁lvl	-8681
▁scr	-8682
▁stk	-8683
▁tim	-8684
▁tom	-8685
▁про	-8686
First	-8687
Score	-8688
][0]:	-8689
deque	-8690
least	-8691
shish	-8692
swaps	-8693
vices	-8694
▁$3$-	-8695
▁$[1;	-8696
▁1337	-8697
▁Comp	-8698
▁`0`.	-8699
▁beer	-8700
▁frag	-8701
▁kept	-8702
▁perm	-8703
▁suma	-8704
▁togg	-8705
......	-8706
.0,28.	-8707
decomp	-8708
ground	-8709
licity	-8710
othing	-8711
▁princ	-8712
▁prove	-8713
▁rolls	-8714
▁sugar	-8715
▁sweet	-8716
Product	-8717
compile	-8718
▁2018-0	-8719
▁bright	-8720
▁limits	-8721
▁market	-8722
▁revers	-8723
▁wealth	-8724
1,2,3,4,	-8725
overflow	-8726
termines	-8727
▁Another	-8728
▁airport	-8729
▁biggest	-8730
▁colours	-8731
▁episode	-8732
▁marbles	-8733
▁placing	-8734
▁reduced	-8735
Implement	-8736
▁communic	-8737
▁earliest	-8738
▁infected	-8739
▁occupies	-8740
▁uniquely	-8741
javascript	-8742
▁encrypted	-8743
▁neighbors	-8744
▁numerator	-8745
▁infinitely	-8746
▁simplicity	-8747
▁submission	-8748
▁successful	-8749
▁complicated	-8750
▁alphabetical	-8751
"}	-8752
+|	-8753
4$	-8754
CH	-8755
DI	-8756
OU	-8757
QR	-8758
sn	-8759
ws	-8760
▁‘	-8761
))%	-8762
644	-8763
659	-8764
Che	-8765
Cor	-8766
erv	-8767
gly	-8768
jan	-8769
lav	-8770
uba	-8771
yen	-8772
ело	-8773
▁43	-8774
▁78	-8775
▁CP	-8776
▁Gu	-8777
▁eg	-8778
▁lb	-8779
297,	-8780
3000	-8781
Java	-8782
John	-8783
[1]-	-8784
cell	-8785
ctor	-8786
happ	-8787
ring	-8788
▁1.5	-8789
▁185	-8790
▁2**	-8791
▁5.0	-8792
▁64-	-8793
▁Han	-8794
▁avg	-8795
▁guy	-8796
▁hot	-8797
▁hun	-8798
▁hyp	-8799
▁sca	-8800
▁xxx	-8801
▁{0,	-8802
Equal	-8803
ender	-8804
erial	-8805
ffici	-8806
izing	-8807
roids	-8808
small	-8809
ukaze	-8810
vited	-8811
▁1)$,	-8812
▁[11,	-8813
▁bell	-8814
▁body	-8815
▁hate	-8816
▁rain	-8817
▁rang	-8818
▁scal	-8819
▁talk	-8820
Simple	-8821
course	-8822
ounced	-8823
▁Harry	-8824
▁Japan	-8825
▁Rules	-8826
▁embed	-8827
▁issue	-8828
▁judge	-8829
▁leads	-8830
▁lying	-8831
▁meets	-8832
▁trick	-8833
connect	-8834
dataset	-8835
ometric	-8836
▁approx	-8837
▁convex	-8838
▁theory	-8839
▁zombie	-8840
datasets	-8841
itsukaze	-8842
positive	-8843
▁2·10^5)	-8844
▁Further	-8845
▁arrived	-8846
▁general	-8847
▁leaving	-8848
▁selects	-8849
▁shorter	-8850
▁shouldn	-8851
fficiency	-8852
▁backward	-8853
▁deletion	-8854
▁olympiad	-8855
▁rounding	-8856
ifications	-8857
▁bisectdef	-8858
▁recursion	-8859
▁calculates	-8860
▁determines	-8861
▁discovered	-8862
▁distributed	-8863
▁instructions	-8864
)|	-8865
+\	-8866
=6	-8867
Ad	-8868
Ai	-8869
El	-8870
dx	-8871
об	-8872
+2]	-8873
+="	-8874
0.0	-8875
00)	-8876
138	-8877
1][	-8878
432	-8879
621	-8880
627	-8881
701	-8882
790	-8883
874	-8884
959	-8885
:])	-8886
=4$	-8887
Bit	-8888
Joh	-8889
PUT	-8890
aca	-8891
ads	-8892
efa	-8893
eze	-8894
nex	-8895
tro	-8896
ups	-8897
urt	-8898
▁'<	-8899
▁/=	-8900
▁52	-8901
▁AA	-8902
▁eq	-8903
▁lr	-8904
---+	-8905
-1)]	-8906
.01,	-8907
18",	-8908
28.5	-8909
2939	-8910
8447	-8911
=2):	-8912
=[[]	-8913
half	-8914
oman	-8915
ques	-8916
stal	-8917
walk	-8918
▁-5,	-8919
▁176	-8920
▁1]]	-8921
▁20.	-8922
▁6}.	-8923
▁7.0	-8924
▁Har	-8925
▁Jon	-8926
▁[['	-8927
▁axs	-8928
▁enc	-8929
▁rad	-8930
(26):	-8931
2,3,"	-8932
8,3,"	-8933
875,,	-8934
Notes	-8935
avers	-8936
money	-8937
notes	-8938
olves	-8939
spect	-8940
teams	-8941
visit	-8942
▁1179	-8943
▁Arya	-8944
▁Jack	-8945
▁Kids	-8946
▁Node	-8947
▁Over	-8948
▁dorm	-8949
▁hole	-8950
▁info	-8951
▁lane	-8952
▁lect	-8953
▁logs	-8954
▁mini	-8955
▁rook	-8956
▁slow	-8957
-02,-2	-8958
2,...,	-8959
before	-8960
ersson	-8961
garten	-8962
median	-8963
params	-8964
queeze	-8965
▁Kevin	-8966
▁Train	-8967
▁banks	-8968
▁raise	-8969
▁walks	-8970
Primary	-8971
cessive	-8972
ierarch	-8973
missing	-8974
urences	-8975
▁10^6$)	-8976
▁200000	-8977
▁Vladik	-8978
▁faster	-8979
▁marble	-8980
▁marker	-8981
▁movies	-8982
▁repost	-8983
▁silver	-8984
▁termin	-8985
▁verify	-8986
sentence	-8987
▁automat	-8988
▁checked	-8989
▁coprime	-8990
▁express	-8991
▁grouped	-8992
▁kingdom	-8993
▁knights	-8994
▁softmax	-8995
▁surface	-8996
character	-8997
▁Christmas	-8998
▁Obviously	-8999
▁splitting	-9000
▁complement	-9001
▁repeatedly	-9002
intersecting	-9003
▁application	-9004
▁recommended	-9005
▁GridSearchCV	-9006
▁Specifically	-9007
"\	-9008
.$	-9009
/4	-9010
FE	-9011
GC	-9012
OV	-9013
Or	-9014
_6	-9015
iu	-9016
uz	-9017
ye	-9018
{:	-9019
ин	-9020
)%2	-9021
264	-9022
3},	-9023
42,	-9024
789	-9025
811	-9026
838	-9027
=3,	-9028
={"	-9029
INT	-9030
Mod	-9031
PAR	-9032
]$;	-9033
bon	-9034
dot	-9035
gap	-9036
▁1'	-9037
▁7:	-9038
▁96	-9039
▁9]	-9040
▁Ho	-9041
▁nu	-9042
▁rb	-9043
▁uf	-9044
+1]-	-9045
1','	-9046
2,1,	-9047
21.9	-9048
22.5	-9049
7060	-9050
='')	-9051
>0):	-9052
Deer	-9053
NAME	-9054
diag	-9055
five	-9056
take	-9057
ural	-9058
zzzz	-9059
▁"."	-9060
▁'-'	-9061
▁-*-	-9062
▁-1]	-9063
▁16.	-9064
▁160	-9065
▁190	-9066
▁80'	-9067
▁MAP	-9068
▁Ram	-9069
▁Reg	-9070
▁Tok	-9071
▁bas	-9072
▁bed	-9073
▁mut	-9074
▁saw	-9075
▁sun	-9076
▁tea	-9077
10.0.	-9078
ashes	-9079
docum	-9080
estim	-9081
fered	-9082
inted	-9083
lceil	-9084
rceil	-9085
yaxis	-9086
▁0.8,	-9087
▁101,	-9088
▁2)$,	-9089
▁500,	-9090
▁Josh	-9091
▁beat	-9092
▁diam	-9093
▁disk	-9094
▁excl	-9095
▁igno	-9096
▁poss	-9097
▁rent	-9098
▁situ	-9099
manual	-9100
orphic	-9101
rename	-9102
tuples	-9103
vowels	-9104
▁100$,	-9105
▁50000	-9106
▁arrow	-9107
▁aster	-9108
▁chick	-9109
▁delta	-9110
▁rings	-9111
▁roots	-9112
Problem	-9113
[-1][1]	-9114
present	-9115
▁10^5),	-9116
▁coffee	-9117
▁cookie	-9118
▁danger	-9119
▁divmod	-9120
▁kilome	-9121
▁looked	-9122
▁notice	-9123
▁paying	-9124
▁poison	-9125
▁throws	-9126
subarray	-9127
▁2.10.0.	-9128
▁Besides	-9129
▁Instead	-9130
▁Integer	-9131
▁practice	-9132
▁produces	-9133
▁quantity	-9134
▁resource	-9135
----------	-9136
▁consonant	-9137
▁government	-9138
▁population	-9139
▁subsequent	-9140
▁solutionNew	-9141
▁decomposition	-9142
0000000000000000	-9143
________________	-9144
1"	-9145
5$	-9146
=7	-9147
=9	-9148
GR	-9149
IP	-9150
WA	-9151
oz	-9152
еч	-9153
▁э	-9154
'`,	-9155
('.	-9156
(6)	-9157
+1-	-9158
+3)	-9159
,0.	-9160
,2,	-9161
194	-9162
30)	-9163
6-1	-9164
723	-9165
821	-9166
836	-9167
=0;	-9168
Foo	-9169
]].	-9170
bal	-9171
bur	-9172
chi	-9173
oma	-9174
src	-9175
▁"5	-9176
▁'7	-9177
▁66	-9178
▁Jr	-9179
▁Sc	-9180
())]	-9181
-1)*	-9182
000)	-9183
100}	-9184
121,	-9185
1415	-9186
1[0]	-9187
2323	-9188
2910	-9189
5555	-9190
BWBW	-9191
Grid	-9192
\}$.	-9193
acks	-9194
ilip	-9195
olya	-9196
pill	-9197
stit	-9198
they	-9199
▁(1≤	-9200
▁0$,	-9201
▁001	-9202
▁13:	-9203
▁15:	-9204
▁App	-9205
▁Cre	-9206
▁Mag	-9207
▁Nom	-9208
▁Son	-9209
▁\}$	-9210
▁upd	-9211
▁пол	-9212
1094,	-9213
Close	-9214
_2...	-9215
acles	-9216
anies	-9217
ector	-9218
iment	-9219
ority	-9220
uting	-9221
▁$[0,	-9222
▁(100	-9223
▁3]$.	-9224
▁Four	-9225
▁Rock	-9226
▁cout	-9227
▁diag	-9228
▁evil	-9229
▁rupe	-9230
▁sees	-9231
1,2,3,	-9232
andler	-9233
buffer	-9234
degree	-9235
inners	-9236
prices	-9237
script	-9238
xlabel	-9239
▁Nikol	-9240
▁Press	-9241
▁coinc	-9242
▁packs	-9243
▁solid	-9244
▁sound	-9245
lengths	-9246
▁$10^6$	-9247
▁chance	-9248
▁covers	-9249
▁locked	-9250
▁nobody	-9251
▁repair	-9252
▁salary	-9253
▁stores	-9254
Recently	-9255
▁awarded	-9256
▁capture	-9257
▁decoded	-9258
▁oranges	-9259
▁planets	-9260
▁spheres	-9261
▁unusual	-9262
connected	-9263
▁Recently	-9264
▁calendar	-9265
▁consecut	-9266
▁traveled	-9267
▁2016-01-0	-9268
▁passwords	-9269
▁explanation	-9270
$"	-9271
)=	-9272
,(	-9273
3[	-9274
Cl	-9275
Em	-9276
Fr	-9277
Wr	-9278
ji	-9279
ий	-9280
ич	-9281
('-	-9282
(7,	-9283
([(	-9284
0))	-9285
009	-9286
1).	-9287
13.	-9288
1]]	-9289
3.0	-9290
64)	-9291
714	-9292
864	-9293
<0:	-9294
=""	-9295
AAB	-9296
][0	-9297
^{\	-9298
lab	-9299
pet	-9300
▁!!	-9301
▁'3	-9302
▁),	-9303
▁1|	-9304
▁Ol	-9305
▁\_	-9306
▁pp	-9307
▁tb	-9308
+1},	-9309
2','	-9310
21,,	-9311
3,3,	-9312
4','	-9313
>=0:	-9314
XXXX	-9315
[0]-	-9316
arsh	-9317
eric	-9318
ians	-9319
olly	-9320
soft	-9321
▁'')	-9322
▁-4,	-9323
▁169	-9324
▁29,	-9325
▁333	-9326
▁4$.	-9327
▁50$	-9328
▁60,	-9329
▁7.5	-9330
▁Dav	-9331
▁Sci	-9332
▁`5`	-9333
▁gym	-9334
▁sad	-9335
2,26.	-9336
PARIS	-9337
Trees	-9338
anese	-9339
izers	-9340
onday	-9341
useum	-9342
▁"200	-9343
▁'!(!	-9344
▁06:5	-9345
▁1$1$	-9346
▁1001	-9347
▁EDGE	-9348
▁Emil	-9349
▁band	-9350
▁boun	-9351
▁cour	-9352
▁flav	-9353
▁gray	-9354
▁minx	-9355
▁seem	-9356
0,1,0,	-9357
1,1,0,	-9358
Square	-9359
argmax	-9360
center	-9361
double	-9362
hopper	-9363
pieces	-9364
▁30000	-9365
▁Being	-9366
▁proba	-9367
▁pupil	-9368
▁ratio	-9369
▁repet	-9370
▁tfidf	-9371
6-05-19	-9372
Element	-9373
Haskell	-9374
argaret	-9375
degrees	-9376
▁Albert	-9377
▁routes	-9378
▁scored	-9379
,33,0,0,	-9380
equalize	-9381
shortest	-9382
traction	-9383
▁10^5$),	-9384
▁citizen	-9385
▁flatten	-9386
▁invited	-9387
▁parents	-9388
▁putting	-9389
▁victory	-9390
▁website	-9391
▁category	-9392
▁decision	-9393
▁optimize	-9394
▁packages	-9395
▁projects	-9396
▁velocity	-9397
codeforces	-9398
▁TypeError	-9399
▁attacking	-9400
▁companies	-9401
▁expressed	-9402
palindromic	-9403
▁compressed	-9404
intersection	-9405
▁CountVectorizer	-9406
*=	-9407
+0	-9408
LT	-9409
Mo	-9410
eq	-9411
fx	-9412
/10	-9413
12:	-9414
2]$	-9415
604	-9416
628	-9417
680	-9418
784	-9419
868	-9420
98,	-9421
Cal	-9422
INF	-9423
OUT	-9424
cba	-9425
lev	-9426
mic	-9427
rev	-9428
rob	-9429
}),	-9430
мер	-9431
▁0`	-9432
▁1≦	-9433
▁7$	-9434
▁Ke	-9435
▁bx	-9436
▁sx	-9437
▁})	-9438
▁не	-9439
▁со	-9440
(5):	-9441
.07.	-9442
/201	-9443
=[1,	-9444
Carl	-9445
Even	-9446
GGGG	-9447
]]),	-9448
_2,\	-9449
aste	-9450
html	-9451
ipal	-9452
john	-9453
need	-9454
ruby	-9455
umpy	-9456
})$.	-9457
имер	-9458
▁(((	-9459
▁(1)	-9460
▁///	-9461
▁0<=	-9462
▁1}$	-9463
▁216	-9464
▁32,	-9465
▁32-	-9466
▁50.	-9467
▁Bin	-9468
▁Jul	-9469
▁KMe	-9470
▁Lee	-9471
▁Mes	-9472
▁Row	-9473
▁agg	-9474
▁bug	-9475
▁pie	-9476
▁sky	-9477
Model	-9478
Trans	-9479
abcde	-9480
ancis	-9481
anded	-9482
loops	-9483
unday	-9484
urity	-9485
▁Bert	-9486
▁\{1,	-9487
▁bamb	-9488
▁cash	-9489
▁pour	-9490
▁sand	-9491
▁viol	-9492
Banana	-9493
Header	-9494
adding	-9495
idence	-9496
nested	-9497
starts	-9498
volume	-9499
▁Lesha	-9500
▁Maxim	-9501
▁Query	-9502
▁bombs	-9503
▁goods	-9504
▁plant	-9505
▁river	-9506
▁worry	-9507
▁young	-9508
flatten	-9509
ignment	-9510
▁1000).	-9511
▁KMeans	-9512
▁Norris	-9513
▁easier	-9514
▁elimin	-9515
▁evenly	-9516
▁father	-9517
▁finite	-9518
▁income	-9519
urations	-9520
▁10^9+7.	-9521
▁Francis	-9522
▁Mahmoud	-9523
▁jumping	-9524
▁recipes	-9525
▁zombies	-9526
partition	-9527
▁Possible	-9528
▁appropri	-9529
▁cheapest	-9530
▁football	-9531
▁homework	-9532
▁security	-9533
ticklabels	-9534
▁$10^9+7$.	-9535
▁generates	-9536
▁operators	-9537
▁residents	-9538
interesting	-9539
▁Palindrome	-9540
▁processing	-9541
▁restriction	-9542
▁submissions	-9543
▁1234567890123	-9544
▁intersections	-9545
▁alphabetically	-9546
)"	-9547
+6	-9548
0"	-9549
SO	-9550
\*	-9551
fd	-9552
(25	-9553
409	-9554
630	-9555
694	-9556
705	-9557
725	-9558
894	-9559
9-1	-9560
=2)	-9561
Are	-9562
Odd	-9563
_1}	-9564
ael	-9565
bus	-9566
cub	-9567
hal	-9568
oos	-9569
▁$+	-9570
▁'5	-9571
▁1·	-9572
▁5-	-9573
▁Bu	-9574
▁DI	-9575
▁`6	-9576
▁kk	-9577
▁od	-9578
▁xp	-9579
▁ка	-9580
//2,	-9581
=0):	-9582
=2$,	-9583
Bool	-9584
GHIJ	-9585
Some	-9586
^(2)	-9587
amer	-9588
aren	-9589
elem	-9590
ells	-9591
enix	-9592
gain	-9593
hole	-9594
maxx	-9595
rypt	-9596
stop	-9597
week	-9598
▁"("	-9599
▁1$)	-9600
▁13.	-9601
▁131	-9602
▁139	-9603
▁184	-9604
▁3))	-9605
▁999	-9606
▁Eug	-9607
▁[[[	-9608
▁hon	-9609
▁hor	-9610
Binar	-9611
Group	-9612
Stack	-9613
icted	-9614
orial	-9615
soint	-9616
stone	-9617
stuff	-9618
▁'.':	-9619
▁'1',	-9620
▁-1),	-9621
▁Cost	-9622
▁Even	-9623
▁Luba	-9624
▁Sort	-9625
▁```1	-9626
▁camp	-9627
▁dims	-9628
▁guys	-9629
▁nest	-9630
▁sale	-9631
▁upon	-9632
▁числ	-9633
-01-22	-9634
Linear	-9635
middle	-9636
suffix	-9637
tesian	-9638
▁Extra	-9639
▁Katas	-9640
▁Vital	-9641
▁Where	-9642
▁[2,3,	-9643
▁aaaaa	-9644
▁corre	-9645
▁flips	-9646
▁hacks	-9647
▁mixed	-9648
ategory	-9649
aturday	-9650
visible	-9651
▁10^9$,	-9652
▁10^{12	-9653
▁Daniel	-9654
▁Tensor	-9655
▁corpus	-9656
▁ensure	-9657
▁grades	-9658
▁laddus	-9659
▁pupils	-9660
divisors	-9661
expected	-9662
multiple	-9663
————————	-9664
▁battery	-9665
▁comment	-9666
Binarizer	-9667
FromModel	-9668
▁2019/1/1	-9669
▁2019/2/1	-9670
▁99824435	-9671
▁modified	-9672
▁notebook	-9673
▁thinking	-9674
▁maximized	-9675
▁tastiness	-9676
occurrences	-9677
▁MultiLabel	-9678
▁Tokitsukaze	-9679
▁hexadecimal	-9680
▁mathematical	-9681
▁restrictions	-9682
%(	-9683
%=	-9684
EE	-9685
KL	-9686
OX	-9687
Rs	-9688
Sw	-9689
aA	-9690
|)	-9691
|\	-9692
ам	-9693
жд	-9694
("%	-9695
.59	-9696
/12	-9697
/5.	-9698
2$.	-9699
5),	-9700
688	-9701
690	-9702
724	-9703
799	-9704
Pos	-9705
aki	-9706
asc	-9707
bbb	-9708
ety	-9709
lld	-9710
mex	-9711
▁()	-9712
▁+1	-9713
▁58	-9714
▁Ap	-9715
▁CN	-9716
▁\*	-9717
▁es	-9718
▁nb	-9719
▁wa	-9720
,36,	-9721
207,	-9722
625,	-9723
==2:	-9724
@@@@	-9725
asdf	-9726
cest	-9727
cies	-9728
enty	-9729
inde	-9730
king	-9731
lazy	-9732
loss	-9733
mini	-9734
otos	-9735
uses	-9736
weet	-9737
▁(2)	-9738
▁(80	-9739
▁+=1	-9740
▁0]]	-9741
▁255	-9742
▁63.	-9743
▁749	-9744
▁Del	-9745
▁Due	-9746
▁dct	-9747
▁ult	-9748
18','	-9749
32)):	-9750
5,3,"	-9751
Every	-9752
[1:])	-9753
attle	-9754
chain	-9755
imate	-9756
ising	-9757
itory	-9758
named	-9759
stick	-9760
texts	-9761
ustaf	-9762
votes	-9763
▁"-1"	-9764
▁$11$	-9765
▁$4$-	-9766
▁Carl	-9767
▁Jeff	-9768
▁Kate	-9769
▁Kefa	-9770
▁Leon	-9771
▁```"	-9772
▁abcd	-9773
▁blow	-9774
▁deep	-9775
+1)//2	-9776
847412	-9777
arture	-9778
bottom	-9779
comple	-9780
ensive	-9781
etrans	-9782
igible	-9783
single	-9784
▁1000.	-9785
▁Frank	-9786
▁keeps	-9787
▁south	-9788
▁wires	-9789
▁строк	-9790
0000.0,	-9791
1,2,3],	-9792
Special	-9793
convert	-9794
oration	-9795
▁Ernest	-9796
▁Gerald	-9797
▁accomp	-9798
▁arrest	-9799
▁frames	-9800
▁invest	-9801
▁pushed	-9802
▁worker	-9803
,31,0,0,	-9804
POSSIBLE	-9805
leetcode	-9806
▁attempt	-9807
▁ignored	-9808
▁mission	-9809
▁planned	-9810
▁railway	-9811
▁rotates	-9812
▁shuffle	-9813
departure	-9814
itionally	-9815
ordinates	-9816
▁Chefland	-9817
▁Logistic	-9818
▁executed	-9819
▁obstacle	-9820
▁stdindef	-9821
▁Statement	-9822
▁classroom	-9823
▁codeforces	-9824
▁estimators	-9825
▁calculation	-9826
▁programmers	-9827
decomposition	-9828
▁consecutively	-9829
****************	-9830
)&	-9831
6}	-9832
AH	-9833
YN	-9834
[4	-9835
cv	-9836
cx	-9837
lr	-9838
")]	-9839
(':	-9840
.4,	-9841
0]]	-9842
131	-9843
184	-9844
1=0	-9845
2.5	-9846
4":	-9847
719	-9848
740	-9849
764	-9850
787	-9851
860	-9852
ERS	-9853
EXT	-9854
How	-9855
Jan	-9856
_10	-9857
_2.	-9858
far	-9859
kes	-9860
try	-9861
ued	-9862
▁(7	-9863
▁4}	-9864
▁Fl	-9865
▁II	-9866
▁][	-9867
▁`9	-9868
▁dt	-9869
▁rx	-9870
▁ut	-9871
▁||	-9872
"```	-9873
$$$$	-9874
(50)	-9875
117,	-9876
20-0	-9877
2000	-9878
2734	-9879
3474	-9880
5,4,	-9881
=-1)	-9882
[3])	-9883
]-1]	-9884
amin	-9885
dden	-9886
geon	-9887
ikes	-9888
ingu	-9889
loop	-9890
pile	-9891
▁07:	-9892
▁166	-9893
▁20)	-9894
▁256	-9895
▁42,	-9896
▁5).	-9897
▁7])	-9898
▁:-)	-9899
▁Ben	-9900
▁lon	-9901
▁mes	-9902
▁mex	-9903
▁pet	-9904
▁phi	-9905
▁son	-9906
▁что	-9907
+1)*(	-9908
353$.	-9909
aches	-9910
front	-9911
olved	-9912
othes	-9913
ryosh	-9914
sharp	-9915
venue	-9916
▁0.1,	-9917
▁0]])	-9918
▁Anna	-9919
▁Game	-9920
▁[[2,	-9921
▁____	-9922
▁bird	-9923
▁bisc	-9924
▁cycl	-9925
▁decl	-9926
▁hope	-9927
▁juic	-9928
▁upto	-9929
-1][0]	-9930
altern	-9931
choice	-9932
rating	-9933
▁100),	-9934
▁Helen	-9935
▁Sonya	-9936
▁blank	-9937
▁pawns	-9938
▁rearr	-9939
▁refle	-9940
▁sells	-9941
▁sense	-9942
▁stars	-9943
Handler	-9944
ameters	-9945
decimal	-9946
limited	-9947
removal	-9948
sofloat	-9949
▁Method	-9950
▁ancest	-9951
▁applic	-9952
▁failed	-9953
▁shifts	-9954
▁useful	-9955
neighbor	-9956
▁[1,2,3]	-9957
▁filling	-9958
▁inverse	-9959
▁isPrime	-9960
▁overall	-9961
▁penalty	-9962
▁regions	-9963
▁streams	-9964
▁streets	-9965
▁whereas	-9966
reachable	-9967
transpose	-9968
▁anywhere	-9969
▁contract	-9970
▁determin	-9971
▁measured	-9972
▁prefixes	-9973
▁switched	-9974
▁switches	-9975
▁attention	-9976
▁collected	-9977
▁excluding	-9978
▁extremely	-9979
▁immediate	-9980
▁increment	-9981
▁instances	-9982
▁movements	-9983
▁professor	-9984
▁receiving	-9985
▁selection	-9986
▁considering	-9987
▁successfully	-9988
▁participating	-9989
UV	-9990
ZZ	-9991
hy	-9992
sz	-9993
»,	-9994
ки	-9995
10}	-9996
325	-9997
46,	-9998
717	-9999
729	-10000
734	-10001
794	-10002
8-2	-10003
816	-10004
90,	-10005
905	-10006
99.	-10007
=2$	-10008
Ber	-10009
EST	-10010
Mat	-10011
PQR	-10012
Pal	-10013
]+1	-10014
atz	-10015
cow	-10016
dev	-10017
isa	-10018
six	-10019
▁9:	-10020
▁Cy	-10021
▁ON	-10022
▁ni	-10023
▁ли	-10024
*-*-	-10025
208,	-10026
21.5	-10027
2222	-10028
27.9	-10029
508,	-10030
695,	-10031
703,	-10032
amel	-10033
ceed	-10034
coef	-10035
dogs	-10036
host	-10037
ntax	-10038
uess	-10039
vari	-10040
▁"))	-10041
▁$2,	-10042
▁107	-10043
▁3.,	-10044
▁34,	-10045
▁90,	-10046
▁CPU	-10047
▁Mem	-10048
▁Mir	-10049
▁Ray	-10050
▁cmd	-10051
▁env	-10052
▁esc	-10053
▁fee	-10054
▁jew	-10055
▁oct	-10056
!=0):	-10057
-6}$.	-10058
10000	-10059
Signs	-10060
Split	-10061
Today	-10062
Water	-10063
allet	-10064
chers	-10065
conds	-10066
cream	-10067
eight	-10068
strom	-10069
venth	-10070
▁102,	-10071
▁Hint	-10072
▁Last	-10073
▁acqu	-10074
▁corr	-10075
▁ncol	-10076
▁prom	-10077
2,1,0,	-10078
:00","	-10079
Second	-10080
arning	-10081
ateral	-10082
erical	-10083
except	-10084
streak	-10085
ylabel	-10086
▁Shark	-10087
▁White	-10088
▁[100,	-10089
▁buses	-10090
▁compe	-10091
▁debts	-10092
▁greet	-10093
▁music	-10094
▁refer	-10095
▁usage	-10096
[-1][0]	-10097
closest	-10098
enerate	-10099
isupper	-10100
minutes	-10101
▁Length	-10102
▁Person	-10103
▁finger	-10104
▁halves	-10105
▁invert	-10106
▁pocket	-10107
▁prints	-10108
▁splits	-10109
▁visual	-10110
omorphic	-10111
▁"2018-0	-10112
▁Kingdom	-10113
▁Maximum	-10114
▁Nikolay	-10115
▁[1,1,1,	-10116
▁ability	-10117
▁candles	-10118
▁crosses	-10119
▁defines	-10120
▁deliver	-10121
▁markers	-10122
▁obvious	-10123
▁storage	-10124
▁Входные	-10125
maketrans	-10126
translate	-10127
▁Byteland	-10128
▁Testcase	-10129
▁checking	-10130
▁delivery	-10131
▁happened	-10132
▁material	-10133
▁properly	-10134
▁yourself	-10135
▁Выходные	-10136
arithmetic	-10137
rectangles	-10138
▁Implement	-10139
▁junctions	-10140
▁returning	-10141
▁suggested	-10142
▁Polynomial	-10143
▁associated	-10144
▁blackboard	-10145
▁brightness	-10146
▁efficiency	-10147
▁eventually	-10148
▁neighbours	-10149
▁sufficient	-10150
'-	-10151
1'	-10152
JS	-10153
So	-10154
nr	-10155
pq	-10156
rp	-10157
}~	-10158
ля	-10159
ры	-10160
▁С	-10161
("0	-10162
(-1	-10163
(8,	-10164
+2*	-10165
-1.	-10166
-4]	-10167
11:	-10168
4':	-10169
726	-10170
735	-10171
AND	-10172
Dec	-10173
Now	-10174
XYZ	-10175
[-2	-10176
]<=	-10177
bob	-10178
fia	-10179
nxt	-10180
pay	-10181
pts	-10182
sup	-10183
svc	-10184
uly	-10185
▁$-	-10186
▁0-	-10187
▁0≤	-10188
▁63	-10189
▁`(	-10190
▁cd	-10191
▁ry	-10192
▁sr	-10193
)[2:	-10194
0001	-10195
133,	-10196
2"],	-10197
29.0	-10198
4,6,	-10199
6679	-10200
668,	-10201
What	-10202
abba	-10203
alek	-10204
atie	-10205
auth	-10206
cond	-10207
dern	-10208
fair	-10209
iple	-10210
java	-10211
leaf	-10212
long	-10213
olid	-10214
rots	-10215
sess	-10216
▁"+"	-10217
▁'01	-10218
▁0.2	-10219
▁11)	-10220
▁11:	-10221
▁167	-10222
▁170	-10223
▁2)]	-10224
▁240	-10225
▁Imp	-10226
▁MEX	-10227
▁Wet	-10228
▁`11	-10229
▁aim	-10230
▁ali	-10231
▁dum	-10232
▁ima	-10233
▁jar	-10234
▁ptr	-10235
▁sin	-10236
▁tau	-10237
▁{4}	-10238
▁дру	-10239
((10,	-10240
)+1):	-10241
0.00,	-10242
125,,	-10243
3,3,"	-10244
375,,	-10245
9,3,"	-10246
9.5,,	-10247
]==1:	-10248
begen	-10249
candy	-10250
comes	-10251
marks	-10252
ntity	-10253
orded	-10254
quest	-10255
roman	-10256
vowel	-10257
▁(1<<	-10258
▁2017	-10259
▁50$)	-10260
▁Cont	-10261
▁Does	-10262
▁Kuro	-10263
▁hair	-10264
▁meal	-10265
▁mood	-10266
▁pron	-10267
▁ride	-10268
▁weak	-10269
-01-31	-10270
/12/15	-10271
16.1,,	-10272
iculty	-10273
mented	-10274
▁10^{5	-10275
▁Artem	-10276
▁Assum	-10277
▁Black	-10278
▁Could	-10279
▁Kolya	-10280
▁abbre	-10281
▁beats	-10282
▁brown	-10283
▁cater	-10284
▁crack	-10285
▁haven	-10286
▁heart	-10287
▁shoot	-10288
▁story	-10289
▁suits	-10290
▁номер	-10291
20-02-1	-10292
2000.0,	-10293
8,1,1,"	-10294
Encoder	-10295
Factors	-10296
begenes	-10297
destroy	-10298
ountain	-10299
▁100$).	-10300
▁Ashish	-10301
▁barrel	-10302
▁facing	-10303
▁gather	-10304
▁paired	-10305
▁plants	-10306
▁subway	-10307
▁thanks	-10308
▁voters	-10309
,17,0,0,	-10310
,42,0,0,	-10311
33333333	-10312
Features	-10313
aturally	-10314
ierarchy	-10315
painting	-10316
▁abacaba	-10317
▁circles	-10318
▁contrad	-10319
▁differs	-10320
▁execute	-10321
▁explore	-10322
▁kitchen	-10323
▁managed	-10324
▁millise	-10325
▁packets	-10326
▁scoring	-10327
▁stopped	-10328
▁traffic	-10329
remainder	-10330
▁00:00:00	-10331
▁bouquets	-10332
▁diameter	-10333
▁matryosh	-10334
▁progress	-10335
▁recorded	-10336
▁relation	-10337
▁vacation	-10338
([1,2,3,4,	-10339
estimators	-10340
▁"2016-05-	-10341
▁Manhattan	-10342
▁Numerical	-10343
▁exercises	-10344
▁finishing	-10345
▁generator	-10346
▁histogram	-10347
▁instantly	-10348
▁integrate	-10349
▁precisely	-10350
▁preloaded	-10351
solutionNew	-10352
▁ExtraTrees	-10353
▁iterations	-10354
▁"2019/04/02	-10355
▁appropriate	-10356
▁temperatures	-10357
▁deliciousness	-10358
▁StandardScaler	-10359
▁SelectFromModel	-10360
▁representations	-10361
%4	-10362
)\	-10363
+9	-10364
TP	-10365
kh	-10366
sx	-10367
yn	-10368
{|	-10369
};	-10370
бо	-10371
('%	-10372
0].	-10373
2$,	-10374
2)]	-10375
3.4	-10376
505	-10377
52,	-10378
6",	-10379
727	-10380
739	-10381
830	-10382
955	-10383
???	-10384
ATT	-10385
End	-10386
bow	-10387
hit	-10388
itz	-10389
maz	-10390
oub	-10391
shi	-10392
std	-10393
вой	-10394
▁'>	-10395
▁({	-10396
▁))	-10397
▁6$	-10398
▁@@	-10399
▁Hi	-10400
▁Lu	-10401
▁Pn	-10402
▁[6	-10403
▁\,	-10404
▁af	-10405
▁nv	-10406
▁от	-10407
)**2	-10408
+1)*	-10409
1689	-10410
3-31	-10411
4,3,	-10412
4,5,	-10413
5','	-10414
805,	-10415
879,	-10416
=1):	-10417
Comp	-10418
Diff	-10419
Will	-10420
apse	-10421
cuts	-10422
eper	-10423
erve	-10424
ibSp	-10425
imon	-10426
irus	-10427
jack	-10428
meet	-10429
oost	-10430
pher	-10431
ется	-10432
≤100	-10433
▁(1-	-10434
▁0.8	-10435
▁19:	-10436
▁3]]	-10437
▁4.5	-10438
▁Ass	-10439
▁IPv	-10440
▁Obs	-10441
▁[2]	-10442
▁[3]	-10443
▁[["	-10444
▁aab	-10445
▁abb	-10446
▁amb	-10447
▁ess	-10448
▁gem	-10449
▁lap	-10450
▁sou	-10451
angar	-10452
ictor	-10453
igure	-10454
inalg	-10455
▁0.2,	-10456
▁Well	-10457
▁desk	-10458
▁exci	-10459
▁fulf	-10460
▁rout	-10461
▁ugly	-10462
▁yard	-10463
▁вело	-10464
(10000	-10465
762939	-10466
atives	-10467
delete	-10468
repeat	-10469
textrm	-10470
▁(0,0)	-10471
▁10^4$	-10472
▁Charl	-10473
▁Lists	-10474
▁cache	-10475
▁kills	-10476
▁latin	-10477
▁mayor	-10478
▁owner	-10479
▁sends	-10480
▁treat	-10481
▁trunc	-10482
▁weeks	-10483
10**9+7	-10484
argsort	-10485
entered	-10486
herlock	-10487
patches	-10488
▁"""###	-10489
▁Barney	-10490
▁Beaver	-10491
▁Valent	-10492
▁commas	-10493
▁plates	-10494
▁settle	-10495
▁sheets	-10496
▁singer	-10497
▁static	-10498
Possible	-10499
capacity	-10500
▁Compute	-10501
▁Product	-10502
▁carrots	-10503
▁contrib	-10504
▁english	-10505
▁forming	-10506
▁officer	-10507
efficient	-10508
▁Sequence	-10509
▁fighting	-10510
▁labelled	-10511
▁shuffled	-10512
▁suffixes	-10513
distribute	-10514
▁celebrate	-10515
▁crossword	-10516
▁developer	-10517
▁perfectly	-10518
▁unlimited	-10519
interpolate	-10520
▁contestant	-10521
▁separately	-10522
▁Furthermore	-10523
▁milliseconds	-10524
▁characterized	-10525
)^	-10526
CO	-10527
HH	-10528
HP	-10529
Pa	-10530
SB	-10531
[~	-10532
dz	-10533
oS	-10534
tv	-10535
·(	-10536
%10	-10537
']:	-10538
,1,	-10539
/09	-10540
504	-10541
55:	-10542
733	-10543
774	-10544
=[0	-10545
ACK	-10546
Cnt	-10547
Mon	-10548
Par	-10549
RRR	-10550
Reg	-10551
arc	-10552
asy	-10553
has	-10554
hex	-10555
hil	-10556
nes	-10557
ugg	-10558
uri	-10559
{2}	-10560
▁([	-10561
▁2≤	-10562
▁5*	-10563
▁Ab	-10564
▁Ay	-10565
▁IT	-10566
▁[4	-10567
▁db	-10568
▁em	-10569
▁lc	-10570
▁mu	-10571
▁nx	-10572
▁ts	-10573
▁tt	-10574
+=1;	-10575
1","	-10576
1,3,	-10577
160,	-10578
1699	-10579
2015	-10580
263,	-10581
28.9	-10582
336,	-10583
6728	-10584
=1).	-10585
Base	-10586
Flow	-10587
[1]*	-10588
_2$.	-10589
link	-10590
omon	-10591
▁#1:	-10592
▁#2:	-10593
▁')'	-10594
▁(25	-10595
▁0)$	-10596
▁0)]	-10597
▁1.,	-10598
▁33,	-10599
▁5},	-10600
▁660	-10601
▁Rus	-10602
▁Sir	-10603
▁[11	-10604
▁aff	-10605
▁egg	-10606
▁mom	-10607
▁tou	-10608
-01-1	-10609
//2):	-10610
3125,	-10611
4,26.	-10612
Green	-10613
Range	-10614
Snuke	-10615
[0]][	-10616
][1]:	-10617
batch	-10618
boxes	-10619
gebra	-10620
isson	-10621
press	-10622
since	-10623
slash	-10624
▁"123	-10625
▁'200	-10626
▁0.25	-10627
▁0001	-10628
▁0011	-10629
▁2]$;	-10630
▁4]$,	-10631
▁6]])	-10632
▁Adil	-10633
▁Thor	-10634
▁Town	-10635
▁dipl	-10636
▁lift	-10637
▁odds	-10638
▁poor	-10639
▁sake	-10640
▁shot	-10641
▁vacc	-10642
▁подъ	-10643
------	-10644
-02,2.	-10645
-1][1]	-10646
Height	-10647
cision	-10648
cities	-10649
ddenly	-10650
frames	-10651
shaped	-10652
▁Earth	-10653
▁Label	-10654
▁Third	-10655
▁coder	-10656
▁comma	-10657
▁const	-10658
▁daily	-10659
▁exhib	-10660
▁flats	-10661
▁hates	-10662
▁relig	-10663
▁sport	-10664
▁thous	-10665
][::-1]	-10666
ievable	-10667
lapping	-10668
mission	-10669
ndimage	-10670
quently	-10671
▁1,000,	-10672
▁10^6).	-10673
▁Andrey	-10674
▁Intern	-10675
▁bridge	-10676
▁cheese	-10677
▁erased	-10678
▁ladder	-10679
▁modern	-10680
▁streak	-10681
clusters	-10682
multiply	-10683
ntityNum	-10684
patterns	-10685
▁Segment	-10686
▁berries	-10687
▁curious	-10688
▁portion	-10689
▁ranking	-10690
▁related	-10691
▁roubles	-10692
▁travers	-10693
▁warrior	-10694
000000007	-10695
happiness	-10696
▁100\,000	-10697
▁attacked	-10698
▁director	-10699
▁majority	-10700
▁pipeline	-10701
▁universe	-10702
1000000007	-10703
ampionship	-10704
contiguous	-10705
▁0.019075,	-10706
▁0.023844,	-10707
▁LinearSVC	-10708
▁Wikipedia	-10709
▁mountains	-10710
▁obstacles	-10711
▁potential	-10712
▁recursive	-10713
▁accomplish	-10714
▁identifier	-10715
▁introduced	-10716
############	-10717
▁'2015-04-24	-10718
▁expressions	-10719
▁insensitive	-10720
▁skyscrapers	-10721
00000000000000	-10722
-4	-10723
.2	-10724
>"	-10725
Ke	-10726
SD	-10727
Sa	-10728
ZY	-10729
gf	-10730
lu	-10731
oi	-10732
▁П	-10733
((1	-10734
(7)	-10735
)$(	-10736
+',	-10737
-3)	-10738
-30	-10739
149	-10740
20)	-10741
20:	-10742
25:	-10743
494	-10744
509	-10745
58,	-10746
638	-10747
674	-10748
954	-10749
9],	-10750
=4,	-10751
=[[	-10752
>1:	-10753
Box	-10754
See	-10755
[["	-10756
]>=	-10757
_2}	-10758
ada	-10759
afa	-10760
ala	-10761
dfs	-10762
eta	-10763
ica	-10764
idy	-10765
ius	-10766
mis	-10767
php	-10768
run	-10769
▁3;	-10770
▁88	-10771
▁Ju	-10772
▁RS	-10773
▁SM	-10774
▁[3	-10775
▁ft	-10776
▁sA	-10777
)-1,	-10778
,18,	-10779
15.0	-10780
27.5	-10781
3,69	-10782
3]],	-10783
7777	-10784
8984	-10785
=2$.	-10786
Draw	-10787
Sage	-10788
When	-10789
ande	-10790
bbbb	-10791
hero	-10792
ixed	-10793
maxi	-10794
nice	-10795
peed	-10796
▁164	-10797
▁189	-10798
▁215	-10799
▁2].	-10800
▁4$,	-10801
▁43.	-10802
▁6]$	-10803
▁Dig	-10804
▁Dis	-10805
▁Far	-10806
▁Ser	-10807
▁`4`	-10808
▁bab	-10809
▁ops	-10810
▁ple	-10811
▁rid	-10812
▁sea	-10813
(100)	-10814
.75,,	-10815
38964	-10816
6,3,"	-10817
7,3,"	-10818
Parch	-10819
Three	-10820
[-1],	-10821
equiv	-10822
fruit	-10823
ftime	-10824
hours	-10825
inals	-10826
lling	-10827
oslav	-10828
plays	-10829
sizes	-10830
strng	-10831
▁$2^{	-10832
▁$6$.	-10833
▁'(':	-10834
▁'0',	-10835
▁0.5,	-10836
▁0110	-10837
▁1111	-10838
▁4)$,	-10839
▁Alan	-10840
▁Such	-10841
▁Swap	-10842
▁\{0,	-10843
▁amaz	-10844
▁belt	-10845
▁boat	-10846
▁byte	-10847
▁chap	-10848
▁coef	-10849
▁owns	-10850
▁plug	-10851
▁tape	-10852
▁trad	-10853
▁одно	-10854
1,1,26	-10855
1,2,2,	-10856
14.5,,	-10857
237060	-10858
26.55,	-10859
27.720	-10860
7-12-1	-10861
EFGHIJ	-10862
[1][0]	-10863
active	-10864
ansion	-10865
circle	-10866
coming	-10867
compat	-10868
ichael	-10869
inputs	-10870
method	-10871
ungeon	-10872
vation	-10873
▁11168	-10874
▁3.3.4	-10875
▁Jacob	-10876
▁North	-10877
▁Shiro	-10878
▁Union	-10879
▁Xenia	-10880
▁alloc	-10881
▁brick	-10882
▁deriv	-10883
▁diffs	-10884
▁equil	-10885
▁human	-10886
▁stuff	-10887
▁trips	-10888
▁weird	-10889
.4958,,	-10890
1,1,2,"	-10891
26.55,,	-10892
4,1,2,"	-10893
7,1,1,"	-10894
Invalid	-10895
iveness	-10896
liament	-10897
▁County	-10898
▁Family	-10899
▁Matrix	-10900
▁Pandas	-10901
▁Philip	-10902
▁bishop	-10903
▁carrot	-10904
▁launch	-10905
▁museum	-10906
▁pillar	-10907
▁plural	-10908
▁script	-10909
▁unless	-10910
▁unused	-10911
▁winter	-10912
,16,0,0,	-10913
:00:00",	-10914
absolute	-10915
authored	-10916
frequent	-10917
strftime	-10918
▁1234567	-10919
▁2343,69	-10920
▁factory	-10921
▁release	-10922
▁sending	-10923
▁sources	-10924
▁species	-10925
▁treated	-10926
Andersson	-10927
remaining	-10928
▁comments	-10929
▁contents	-10930
▁response	-10931
▁somebody	-10932
▁tomorrow	-10933
▁visitors	-10934
▁2017-12-1	-10935
▁caterpill	-10936
▁expensive	-10937
▁obviously	-10938
▁rotations	-10939
▁algorithms	-10940
▁spectators	-10941
▁competitive	-10942
▁convenience	-10943
▁individuals	-10944
▁interpreter	-10945
▁requirement	-10946
▁2343,69.55,,	-10947
▁concatenated	-10948
▁documentation	-10949
▁possibilities	-10950
"{	-10951
,'	-10952
/)	-10953
2"	-10954
7}	-10955
Ab	-10956
Cy	-10957
EL	-10958
RI	-10959
TC	-10960
nk	-10961
vg	-10962
{4	-10963
».	-10964
ал	-10965
же	-10966
ко	-10967
▁у	-10968
(15	-10969
)/2	-10970
,1)	-10971
.5$	-10972
00$	-10973
1==	-10974
20]	-10975
38:	-10976
4-2	-10977
618	-10978
785	-10979
818	-10980
Non	-10981
RGB	-10982
dam	-10983
edi	-10984
fly	-10985
hon	-10986
ika	-10987
ota	-10988
pal	-10989
rie	-10990
tag	-10991
url	-10992
war	-10993
{3}	-10994
тов	-10995
▁'%	-10996
▁'8	-10997
▁'|	-10998
▁-6	-10999
▁5·	-11000
▁72	-11001
▁81	-11002
▁Aj	-11003
▁Tr	-11004
▁Us	-11005
▁[{	-11006
▁ci	-11007
')['	-11008
777_	-11009
805_	-11010
8828	-11011
883,	-11012
884_	-11013
Back	-11014
Buzz	-11015
CCCC	-11016
NULL	-11017
OOOO	-11018
[3],	-11019
abul	-11020
amaz	-11021
dice	-11022
mass	-11023
mins	-11024
reed	-11025
semb	-11026
wert	-11027
▁$50	-11028
▁(7,	-11029
▁140	-11030
▁15.	-11031
▁18.	-11032
▁2.,	-11033
▁314	-11034
▁5$.	-11035
▁600	-11036
▁8.0	-11037
▁MIN	-11038
▁Mon	-11039
▁Nat	-11040
▁Set	-11041
▁din	-11042
▁glo	-11043
▁hay	-11044
▁std	-11045
▁txt	-11046
▁{},	-11047
/1/19	-11048
brack	-11049
ended	-11050
liprp	-11051
lista	-11052
mails	-11053
poses	-11054
riday	-11055
union	-11056
▁$998	-11057
▁'.',	-11058
▁-1],	-11059
▁0.20	-11060
▁1$).	-11061
▁1024	-11062
▁17],	-11063
▁Base	-11064
▁Cela	-11065
▁Clps	-11066
▁Word	-11067
▁[50,	-11068
▁`2`.	-11069
▁cntr	-11070
▁jars	-11071
▁pred	-11072
▁strs	-11073
▁tips	-11074
-----|	-11075
Answer	-11076
Member	-11077
candid	-11078
ivered	-11079
ourier	-11080
powers	-11081
rarily	-11082
select	-11083
stairs	-11084
tended	-11085
▁$10$.	-11086
▁0.424	-11087
▁10^6,	-11088
▁Basic	-11089
▁Borya	-11090
▁Inter	-11091
▁Messi	-11092
▁Score	-11093
▁Tests	-11094
▁[1.0,	-11095
▁angry	-11096
▁decor	-11097
▁dense	-11098
▁ghost	-11099
▁heard	-11100
▁masks	-11101
▁monot	-11102
▁orbit	-11103
▁vault	-11104
▁walls	-11105
amation	-11106
changed	-11107
display	-11108
ibility	-11109
ponents	-11110
▁763]],	-11111
▁Answer	-11112
▁Cuckoo	-11113
▁Having	-11114
▁Should	-11115
▁System	-11116
▁arrows	-11117
▁branch	-11118
▁clocks	-11119
▁closer	-11120
▁criter	-11121
▁invent	-11122
▁kangar	-11123
▁laptop	-11124
▁proven	-11125
▁shares	-11126
▁slimes	-11127
▁smooth	-11128
▁submit	-11129
.07.2018	-11130
ensemble	-11131
password	-11132
relation	-11133
shouldBe	-11134
▁Desired	-11135
▁Perform	-11136
▁Pnliprp	-11137
▁brought	-11138
▁buckets	-11139
▁clothes	-11140
▁cutting	-11141
▁discard	-11142
▁inequal	-11143
▁interle	-11144
▁variant	-11145
formatics	-11146
isionTree	-11147
▁"""-----	-11148
▁-0.1231,	-11149
▁Although	-11150
▁Sherlock	-11151
▁assuming	-11152
▁believes	-11153
▁business	-11154
▁disjoint	-11155
▁playlist	-11156
▁scissors	-11157
▁simulate	-11158
▁sleeping	-11159
▁variants	-11160
▁withdraw	-11161
startswith	-11162
▁banknotes	-11163
▁crossroad	-11164
▁delivered	-11165
▁dormitory	-11166
▁fibonacci	-11167
▁precision	-11168
▁strengths	-11169
▁"1980-01-0	-11170
▁..........	-11171
▁2016-05-19	-11172
▁encryption	-11173
▁functional	-11174
▁rearranged	-11175
▁Fortunately	-11176
▁differences	-11177
2;	-11178
3\	-11179
Br	-11180
IX	-11181
NT	-11182
TH	-11183
]|	-11184
eb	-11185
jp	-11186
uf	-11187
}"	-11188
от	-11189
▁■	-11190
!",	-11191
(8)	-11192
+((	-11193
,9,	-11194
.',	-11195
//(	-11196
1)]	-11197
1+=	-11198
11)	-11199
23:	-11200
29:	-11201
3,5	-11202
3-2	-11203
30:	-11204
4),	-11205
737	-11206
754	-11207
=0.	-11208
Dan	-11209
KLM	-11210
Sex	-11211
UVW	-11212
]`.	-11213
_{\	-11214
erk	-11215
hig	-11216
ijk	-11217
ipe	-11218
irm	-11219
irs	-11220
msg	-11221
ptr	-11222
}".	-11223
вен	-11224
ите	-11225
▁"?	-11226
▁07	-11227
▁PM	-11228
▁SV	-11229
▁\&	-11230
▁bs	-11231
▁hq	-11232
▁ln	-11233
▁lp	-11234
▁td	-11235
(12)	-11236
(123	-11237
+2)]	-11238
,17,	-11239
2500	-11240
26.0	-11241
266,	-11242
312,	-11243
371,	-11244
Four	-11245
GTCA	-11246
Gold	-11247
[1]+	-11248
aser	-11249
cats	-11250
expo	-11251
gent	-11252
hail	-11253
illa	-11254
isha	-11255
outh	-11256
radi	-11257
role	-11258
your	-11259
||||	-11260
≤105	-11261
▁'',	-11262
▁'20	-11263
▁($|	-11264
▁(15	-11265
▁138	-11266
▁20]	-11267
▁3):	-11268
▁3},	-11269
▁6.0	-11270
▁800	-11271
▁900	-11272
▁Amr	-11273
▁Cor	-11274
▁Ind	-11275
▁Our	-11276
▁ben	-11277
▁kth	-11278
▁lem	-11279
▁peb	-11280
▁rib	-11281
▁sor	-11282
Match	-11283
Power	-11284
SibSp	-11285
[-1]]	-11286
acker	-11287
ancel	-11288
annel	-11289
cleot	-11290
costs	-11291
extra	-11292
osite	-11293
pizza	-11294
plies	-11295
posit	-11296
stest	-11297
tende	-11298
trees	-11299
usion	-11300
▁")))	-11301
▁$12$	-11302
▁0100	-11303
▁1)))	-11304
▁100]	-11305
▁1101	-11306
▁2)$.	-11307
▁2.0,	-11308
▁Greg	-11309
▁Rest	-11310
▁User	-11311
▁```0	-11312
▁crew	-11313
▁lots	-11314
▁oven	-11315
▁pole	-11316
▁tabs	-11317
actual	-11318
annies	-11319
attack	-11320
bounds	-11321
hoenix	-11322
isions	-11323
istant	-11324
levels	-11325
serted	-11326
source	-11327
sticks	-11328
▁$100$	-11329
▁($1$,	-11330
▁David	-11331
▁Gener	-11332
▁Group	-11333
▁Thank	-11334
▁accur	-11335
▁brain	-11336
▁email	-11337
▁falls	-11338
▁famil	-11339
▁holid	-11340
▁liked	-11341
▁pipes	-11342
▁plate	-11343
▁posts	-11344
▁rated	-11345
▁shall	-11346
▁stuck	-11347
▁sushi	-11348
▁tires	-11349
2,1,3,"	-11350
Decimal	-11351
logical	-11352
ongoose	-11353
regular	-11354
▁:-----	-11355
▁Bessie	-11356
▁Martin	-11357
▁banana	-11358
▁drinks	-11359
▁formul	-11360
▁grapes	-11361
▁layout	-11362
▁master	-11363
▁photos	-11364
▁police	-11365
▁reader	-11366
▁regist	-11367
▁sector	-11368
▁sounds	-11369
▁speeds	-11370
▁thread	-11371
▁Players	-11372
▁analyze	-11373
▁ancient	-11374
▁assumed	-11375
▁derived	-11376
▁figures	-11377
▁herself	-11378
▁limited	-11379
▁rabbits	-11380
▁telling	-11381
▁weather	-11382
▁windows	-11383
construct	-11384
▁inserted	-11385
▁register	-11386
▁situated	-11387
▁studying	-11388
▁watching	-11389
▁weighted	-11390
▁Sometimes	-11391
▁deviation	-11392
▁extension	-11393
▁geometric	-11394
▁placement	-11395
▁processed	-11396
▁processes	-11397
▁reference	-11398
▁somewhere	-11399
▁spaceship	-11400
▁technique	-11401
▁1234567890	-11402
▁consistent	-11403
▁containers	-11404
▁mathematic	-11405
▁parliament	-11406
▁arbitrarily	-11407
▁Additionally	-11408
▁translations	-11409
▁preprocessing	-11410
000000000000000	-11411
#1	-11412
)[	-11413
+-	-11414
,"	-11415
.:	-11416
2_	-11417
CK	-11418
OP	-11419
Ph	-11420
VE	-11421
YB	-11422
_.	-11423
bz	-11424
hs	-11425
ku	-11426
ni	-11427
pf	-11428
xb	-11429
──	-11430
から	-11431
!")	-11432
!')	-11433
'*(	-11434
(24	-11435
/2/	-11436
122	-11437
13:	-11438
24:	-11439
39:	-11440
4-1	-11441
44:	-11442
45)	-11443
780	-11444
CON	-11445
Web	-11446
gcf	-11447
geh	-11448
gir	-11449
ida	-11450
kin	-11451
lle	-11452
lvl	-11453
may	-11454
olt	-11455
uer	-11456
ule	-11457
zil	-11458
}'.	-11459
≤10	-11460
▁"9	-11461
▁$`	-11462
▁(6	-11463
▁.*	-11464
▁2`	-11465
▁::	-11466
▁Bo	-11467
▁CH	-11468
▁PR	-11469
▁`#	-11470
▁kn	-11471
▁pq	-11472
▁pt	-11473
▁го	-11474
"],[	-11475
)```	-11476
+2+3	-11477
,26,	-11478
1221	-11479
15,,	-11480
2-01	-11481
20.0	-11482
20.5	-11483
258,	-11484
26.9	-11485
2724	-11486
292,	-11487
3.5,	-11488
33,,	-11489
5-10	-11490
651,	-11491
688,	-11492
7,7,	-11493
FFFF	-11494
URCE	-11495
_**.	-11496
_1,\	-11497
anum	-11498
cake	-11499
comm	-11500
deed	-11501
erry	-11502
eted	-11503
gift	-11504
gold	-11505
heer	-11506
iana	-11507
ilit	-11508
lies	-11509
star	-11510
uniq	-11511
urik	-11512
vens	-11513
wall	-11514
▁$2^	-11515
▁$[\	-11516
▁(60	-11517
▁102	-11518
▁3^2	-11519
▁4)$	-11520
▁512	-11521
▁Jen	-11522
▁Mor	-11523
▁`["	-11524
▁rod	-11525
▁utf	-11526
▁xyz	-11527
()```	-11528
11350	-11529
333,,	-11530
34577	-11531
34924	-11532
4,2,"	-11533
4,3,"	-11534
6,1,"	-11535
7.879	-11536
Child	-11537
Multi	-11538
Petya	-11539
Words	-11540
cible	-11541
coord	-11542
cross	-11543
domin	-11544
drink	-11545
ences	-11546
facec	-11547
gehog	-11548
inity	-11549
iolet	-11550
oughn	-11551
roots	-11552
skill	-11553
ublic	-11554
▁"2",	-11555
▁$8$.	-11556
▁'?':	-11557
▁10$,	-11558
▁5]$,	-11559
▁9923	-11560
▁CNTS	-11561
▁Ilya	-11562
▁[21,	-11563
▁`1`.	-11564
▁fest	-11565
▁late	-11566
▁pull	-11567
▁quar	-11568
▁quit	-11569
▁taxi	-11570
▁trap	-11571
▁кото	-11572
/2/1",	-11573
0,1,1,	-11574
10^{9}	-11575
14.454	-11576
15.5,,	-11577
310129	-11578
Carlos	-11579
Unique	-11580
abcabc	-11581
aining	-11582
corpus	-11583
csharp	-11584
ecraft	-11585
figure	-11586
onents	-11587
pizzas	-11588
quotes	-11589
slices	-11590
▁$[10,	-11591
▁126.0	-11592
▁Sofia	-11593
▁Super	-11594
▁[[0]*	-11595
▁disks	-11596
▁exclu	-11597
▁horse	-11598
▁maint	-11599
▁meant	-11600
▁shell	-11601
▁ships	-11602
▁tanks	-11603
▁ticks	-11604
-02,-2.	-11605
aroslav	-11606
erscore	-11607
friends	-11608
rounded	-11609
softmax	-11610
▁2014-1	-11611
▁candle	-11612
▁couple	-11613
▁discus	-11614
▁fridge	-11615
▁harmon	-11616
▁scales	-11617
▁toggle	-11618
▁wishes	-11619
,39,0,0,	-11620
,40,0,0,	-11621
,45,0,0,	-11622
5,6,7,8,	-11623
6,8.05,,	-11624
7.7958,,	-11625
7.8792,,	-11626
<<<<<<<<	-11627
periodic	-11628
▁"2017-0	-11629
▁Pattern	-11630
▁carried	-11631
▁central	-11632
▁compete	-11633
▁decrypt	-11634
▁lecture	-11635
▁parking	-11636
▁presses	-11637
▁schools	-11638
▁shifted	-11639
▁targets	-11640
14.4542,,	-11641
calculate	-11642
documents	-11643
orization	-11644
subarrays	-11645
▁10^{18}$	-11646
▁2016-05-	-11647
▁Margaret	-11648
▁binomial	-11649
▁designed	-11650
▁floating	-11651
▁reaching	-11652
▁realized	-11653
▁triplets	-11654
▁Currently	-11655
▁opponents	-11656
atisfaction	-11657
▁calibrated	-11658
▁converting	-11659
▁microtrans	-11660
▁scientists	-11661
",".",".",".	-11662
▁"2019/2/1",	-11663
▁dimensional	-11664
▁grasshopper	-11665
▁championship	-11666
▁makeNegative	-11667
)!	-11668
8}	-11669
:-	-11670
QL	-11671
SP	-11672
mg	-11673
oe	-11674
}^	-11675
ть	-11676
'`.	-11677
(9)	-11678
)**	-11679
+=2	-11680
-->	-11681
-2*	-11682
014	-11683
10]	-11684
1].	-11685
2]]	-11686
45:	-11687
5-2	-11688
616	-11689
ATA	-11690
Ang	-11691
GHT	-11692
LOW	-11693
XOR	-11694
][:	-11695
bec	-11696
don	-11697
eng	-11698
itu	-11699
lla	-11700
udo	-11701
}{|	-11702
оль	-11703
▁":	-11704
▁(=	-11705
▁3\	-11706
▁Ca	-11707
▁EX	-11708
▁HP	-11709
▁Li	-11710
▁NA	-11711
▁Oh	-11712
▁Sa	-11713
▁Ty	-11714
▁`{	-11715
▁dv	-11716
▁gc	-11717
▁gg	-11718
▁ie	-11719
▁jj	-11720
▁nm	-11721
▁pw	-11722
▁ze	-11723
▁|2	-11724
"]})	-11725
(15,	-11726
+1)%	-11727
1,5,	-11728
195,	-11729
3499	-11730
6640	-11731
8,2,	-11732
871,	-11733
WAIT	-11734
aabb	-11735
font	-11736
haps	-11737
ikit	-11738
iral	-11739
mist	-11740
rogs	-11741
roid	-11742
writ	-11743
|}{\	-11744
▁"-"	-11745
▁$30	-11746
▁')]	-11747
▁(3)	-11748
▁-2.	-11749
▁.*.	-11750
▁14.	-11751
▁24-	-11752
▁28,	-11753
▁3`,	-11754
▁55,	-11755
▁57,	-11756
▁6))	-11757
▁Bet	-11758
▁Cho	-11759
▁Jes	-11760
▁Joe	-11761
▁Tim	-11762
▁[-0	-11763
▁ath	-11764
▁aud	-11765
▁dom	-11766
▁foc	-11767
▁nex	-11768
▁req	-11769
▁saf	-11770
▁vol	-11771
▁ком	-11772
-01-2	-11773
000$1	-11774
10^5)	-11775
[1:],	-11776
ascal	-11777
atson	-11778
ichik	-11779
idend	-11780
imgur	-11781
irect	-11782
plane	-11783
rooms	-11784
spike	-11785
umbre	-11786
ходит	-11787
▁"0",	-11788
▁$7$,	-11789
▁'2',	-11790
▁(-1)	-11791
▁10]$	-11792
▁10^7	-11793
▁1110	-11794
▁4]$.	-11795
▁Anya	-11796
▁Evil	-11797
▁Hunt	-11798
▁NOTE	-11799
▁Repe	-11800
▁[(1,	-11801
▁[15,	-11802
▁cred	-11803
▁dies	-11804
▁fart	-11805
▁feet	-11806
▁fell	-11807
▁legs	-11808
▁miny	-11809
▁rope	-11810
▁shor	-11811
▁след	-11812
arista	-11813
cancel	-11814
fillna	-11815
lished	-11816
ocabul	-11817
olumes	-11818
parity	-11819
tences	-11820
uccess	-11821
▁0.1],	-11822
▁000).	-11823
▁Empty	-11824
▁Omkar	-11825
▁admin	-11826
▁camer	-11827
▁ideas	-11828
▁meals	-11829
address	-11830
haskell	-11831
heights	-11832
▁2013-1	-11833
▁Alexey	-11834
▁Vasily	-11835
▁Vitaly	-11836
▁formal	-11837
▁harder	-11838
▁models	-11839
▁module	-11840
▁nearby	-11841
▁needle	-11842
▁signal	-11843
▁unread	-11844
66666666	-11845
anumeric	-11846
▁Charlie	-11847
▁Convert	-11848
▁Leonard	-11849
▁believe	-11850
▁creates	-11851
▁erasing	-11852
▁flights	-11853
▁fulfill	-11854
▁keyword	-11855
▁nesting	-11856
▁numeral	-11857
▁picking	-11858
▁recover	-11859
▁watched	-11860
▁winners	-11861
distances	-11862
icklabels	-11863
mentioned	-11864
numerator	-11865
ocabulary	-11866
▁Whenever	-11867
▁activity	-11868
▁answered	-11869
▁centered	-11870
▁confused	-11871
▁diplomas	-11872
▁distingu	-11873
▁internal	-11874
▁midnight	-11875
▁outcomes	-11876
▁periodic	-11877
▁selector	-11878
▁subtasks	-11879
▁whenever	-11880
similarity	-11881
▁999999999	-11882
▁Character	-11883
▁chemicals	-11884
▁districts	-11885
▁inversion	-11886
▁purchased	-11887
▁resources	-11888
▁apartments	-11889
▁dataframes	-11890
▁experiment	-11891
▁throughout	-11892
▁instruction	-11893
▁LabelEncoder	-11894
▁distributions	-11895
"(	-11896
OQ	-11897
RF	-11898
RU	-11899
UP	-11900
bg	-11901
gx	-11902
vf	-11903
ик	-11904
се	-11905
▁ρ	-11906
!!"	-11907
!=0	-11908
"",	-11909
"]:	-11910
),(	-11911
,2)	-11912
,4,	-11913
/07	-11914
1-1	-11915
146	-11916
151	-11917
21:	-11918
238	-11919
26:	-11920
6),	-11921
7',	-11922
760	-11923
99:	-11924
=5$	-11925
={'	-11926
]]=	-11927
_1+	-11928
ano	-11929
hay	-11930
ios	-11931
nor	-11932
ork	-11933
ple	-11934
{1}	-11935
▁$"	-11936
▁8$	-11937
▁8:	-11938
▁=$	-11939
▁AV	-11940
▁BB	-11941
▁Da	-11942
▁Di	-11943
▁JS	-11944
▁\"	-11945
▁ak	-11946
▁au	-11947
▁cs	-11948
▁fi	-11949
▁qs	-11950
▁rr	-11951
▁|3	-11952
']).	-11953
+1)-	-11954
+2):	-11955
.95,	-11956
//2:	-11957
120,	-11958
17.0	-11959
203,	-11960
4399	-11961
586,	-11962
7617	-11963
8779	-11964
ABLE	-11965
Ball	-11966
File	-11967
Fron	-11968
TTTT	-11969
[1::	-11970
bile	-11971
coin	-11972
inch	-11973
jobs	-11974
lena	-11975
lify	-11976
mann	-11977
onal	-11978
pmod	-11979
pref	-11980
reek	-11981
resc	-11982
roak	-11983
vote	-11984
{1},	-11985
▁'+'	-11986
▁-6,	-11987
▁155	-11988
▁222	-11989
▁245	-11990
▁2^2	-11991
▁385	-11992
▁4},	-11993
▁63,	-11994
▁Ali	-11995
▁Def	-11996
▁END	-11997
▁LCM	-11998
▁Met	-11999
▁PIN	-12000
▁Rep	-12001
▁Win	-12002
▁bob	-12003
▁fol	-12004
▁jok	-12005
▁ndp	-12006
▁pin	-12007
▁ria	-12008
■■■■	-12009
()())	-12010
([10,	-12011
000$.	-12012
244\,	-12013
5078,	-12014
Boxes	-12015
Since	-12016
[0]):	-12017
_{1},	-12018
allow	-12019
andig	-12020
ascii	-12021
clean	-12022
ffina	-12023
icing	-12024
inese	-12025
ional	-12026
means	-12027
trunc	-12028
vdots	-12029
ество	-12030
▁![](	-12031
▁(93,	-12032
▁Like	-12033
▁Mean	-12034
▁Orac	-12035
▁[2],	-12036
▁ages	-12037
▁arch	-12038
▁batt	-12039
▁beac	-12040
▁bugs	-12041
▁cans	-12042
▁crim	-12043
▁font	-12044
▁isol	-12045
▁pond	-12046
▁salo	-12047
▁vary	-12048
▁wasn	-12049
-01-06	-12050
10,11,	-12051
[:-1])	-12052
angled	-12053
calcul	-12054
config	-12055
decode	-12056
erated	-12057
ikhail	-12058
import	-12059
necess	-12060
ortune	-12061
portun	-12062
spired	-12063
uesday	-12064
▁"(())	-12065
▁"2000	-12066
▁000),	-12067
▁10^5;	-12068
▁2000)	-12069
▁2000,	-12070
▁Karen	-12071
▁Roman	-12072
▁Which	-12073
▁artic	-12074
▁brute	-12075
▁claim	-12076
▁drops	-12077
▁hasht	-12078
▁maybe	-12079
▁medal	-12080
▁opens	-12081
▁peace	-12082
▁pivot	-12083
▁prece	-12084
▁topic	-12085
▁unite	-12086
\,244\,	-12087
ahedron	-12088
allenge	-12089
artment	-12090
bitwise	-12091
gorithm	-12092
indexes	-12093
islower	-12094
mediate	-12095
reamoon	-12096
▁Random	-12097
▁Victor	-12098
▁author	-12099
▁compar	-12100
▁cypher	-12101
▁fights	-12102
▁floats	-12103
▁offset	-12104
▁potion	-12105
▁serves	-12106
▁swords	-12107
▁wallet	-12108
▁строке	-12109
!!!!!!!!	-12110
Frontend	-12111
GTCAGTCA	-12112
required	-12113
rotation	-12114
strength	-12115
▁chicken	-12116
▁falling	-12117
▁growing	-12118
▁measure	-12119
▁ndimage	-12120
▁offered	-12121
▁potions	-12122
▁sequent	-12123
▁seventh	-12124
▁trouble	-12125
▁univers	-12126
▁visitor	-12127
EntityNum	-12128
▁Internet	-12129
▁anagrams	-12130
▁boundary	-12131
▁branches	-12132
▁certific	-12133
▁crossing	-12134
▁cupcakes	-12135
▁displays	-12136
▁grannies	-12137
▁mongoose	-12138
▁opportun	-12139
▁overflow	-12140
▁resistor	-12141
▁snowball	-12142
▁speaking	-12143
▁spending	-12144
▁subjects	-12145
▁username	-12146
probegenes	-12147
▁Following	-12148
▁apartment	-12149
▁citations	-12150
▁inserting	-12151
▁normalize	-12152
xticklabels	-12153
▁Impossible	-12154
▁JavaScript	-12155
▁categories	-12156
▁illustrate	-12157
▁successive	-12158
▁00:00:00-06	-12159
▁arrayObject	-12160
▁development	-12161
▁possibility	-12162
▁DecisionTree	-12163
▁InputHandler	-12164
▁difficulties	-12165
▁replacements	-12166
"?	-12167
'(	-12168
'{	-12169
AE	-12170
AQ	-12171
DS	-12172
Go	-12173
KE	-12174
My	-12175
Ox	-12176
US	-12177
VV	-12178
_,	-12179
fc	-12180
yr	-12181
ку	-12182
ый	-12183
≤1	-12184
▁я	-12185
▇_	-12186
(')	-12187
+10	-12188
.50	-12189
/08	-12190
0)]	-12191
258	-12192
28:	-12193
440	-12194
6-2	-12195
7-2	-12196
788	-12197
7])	-12198
904	-12199
=''	-12200
=0:	-12201
AAA	-12202
Del	-12203
ING	-12204
May	-12205
OOO	-12206
_3)	-12207
bcd	-12208
bek	-12209
elt	-12210
iet	-12211
iku	-12212
rik	-12213
sig	-12214
tha	-12215
til	-12216
ume	-12217
xxx	-12218
zag	-12219
▁1*	-12220
▁53	-12221
▁7}	-12222
▁91	-12223
▁BE	-12224
▁DD	-12225
▁Je	-12226
▁sf	-12227
*(1-	-12228
+1}$	-12229
,24,	-12230
101"	-12231
1350	-12232
17,,	-12233
2,1]	-12234
211,	-12235
26.4	-12236
2675	-12237
28.0	-12238
289,	-12239
3-27	-12240
332,	-12241
367,	-12242
4514	-12243
6,7,	-12244
6367	-12245
9921	-12246
Area	-12247
Bart	-12248
LOSE	-12249
Math	-12250
also	-12251
auuo	-12252
bank	-12253
dddd	-12254
info	-12255
isks	-12256
lias	-12257
nder	-12258
orty	-12259
pers	-12260
rian	-12261
tion	-12262
ucas	-12263
vard	-12264
what	-12265
ylim	-12266
олич	-12267
▁00:	-12268
▁20$	-12269
▁20%	-12270
▁21:	-12271
▁22.	-12272
▁230	-12273
▁323	-12274
▁36,	-12275
▁45,	-12276
▁56,	-12277
▁Ban	-12278
▁Gru	-12279
▁Pos	-12280
▁Rem	-12281
▁Tak	-12282
▁cmp	-12283
▁dem	-12284
▁dup	-12285
▁lil	-12286
▁mot	-12287
▁pok	-12288
▁sch	-12289
▁spy	-12290
▁tap	-12291
'],['	-12292
('.')	-12293
([-1,	-12294
25064	-12295
2656,	-12296
31509	-12297
35040	-12298
Black	-12299
Check	-12300
KLMNO	-12301
PQRST	-12302
[-1]+	-12303
^{-1}	-12304
_1234	-12305
aaaaa	-12306
atory	-12307
delta	-12308
etris	-12309
inema	-12310
isino	-12311
klace	-12312
oline	-12313
orsch	-12314
paper	-12315
seudo	-12316
turns	-12317
▁$(5,	-12318
▁$7$.	-12319
▁$8$,	-12320
▁-0.0	-12321
▁-0.5	-12322
▁1)$.	-12323
▁1200	-12324
▁Ehab	-12325
▁Left	-12326
▁Look	-12327
▁Read	-12328
▁Ujan	-12329
▁[-2,	-12330
▁anti	-12331
▁bold	-12332
▁gate	-12333
▁gems	-12334
▁heat	-12335
▁laun	-12336
▁maxy	-12337
▁moon	-12338
▁pays	-12339
▁pmax	-12340
▁prim	-12341
▁swim	-12342
▁wise	-12343
▁worm	-12344
""""",	-12345
.0,22.	-12346
000001	-12347
1,0,1,	-12348
15.245	-12349
3,26,,	-12350
7.05,,	-12351
Matrix	-12352
SOURCE	-12353
[1][1]	-12354
ansson	-12355
blocks	-12356
contin	-12357
exists	-12358
person	-12359
zscore	-12360
▁10^4)	-12361
▁Chane	-12362
▁Magic	-12363
▁Smith	-12364
▁ahead	-12365
▁alice	-12366
▁batch	-12367
▁beach	-12368
▁dists	-12369
▁hills	-12370
▁lanes	-12371
▁npdef	-12372
▁ordin	-12373
▁plain	-12374
▁prize	-12375
▁spike	-12376
▁thief	-12377
▁tooth	-12378
▁worst	-12379
▁колич	-12380
24.15,,	-12381
6,1,3,"	-12382
8,1,3,"	-12383
9,1,3,"	-12384
bonacci	-12385
ception	-12386
inverse	-12387
pyramid	-12388
quality	-12389
returns	-12390
▁2·10^9	-12391
▁Memory	-12392
▁Namely	-12393
▁agreed	-12394
▁behind	-12395
▁borsch	-12396
▁brains	-12397
▁checks	-12398
▁dragon	-12399
▁fibfib	-12400
▁grains	-12401
▁hungry	-12402
▁inscri	-12403
▁namely	-12404
▁pizzas	-12405
▁poster	-12406
▁scheme	-12407
▁wooden	-12408
▁подъез	-12409
,,0,0,11	-12410
,,0,0,36	-12411
,29,1,0,	-12412
,34,0,0,	-12413
,47,0,0,	-12414
0,0,0,0,	-12415
4,2,3470	-12416
80-01-01	-12417
=10**9+7	-12418
interval	-12419
ountered	-12420
subtract	-12421
username	-12422
▁($-10^9	-12423
▁10^{18}	-12424
▁Michael	-12425
▁bridges	-12426
▁concent	-12427
▁enjoyed	-12428
▁guessed	-12429
▁realize	-12430
▁substit	-12431
▁triplet	-12432
15.2458,,	-12433
Elizabeth	-12434
facecolor	-12435
specially	-12436
▁Expected	-12437
▁clusters	-12438
▁combined	-12439
▁declared	-12440
▁dominant	-12441
▁heapqdef	-12442
▁particle	-12443
▁proceeds	-12444
▁suddenly	-12445
▁traverse	-12446
,,0,0,3309	-12447
2019/04/02	-12448
MultiIndex	-12449
components	-12450
duplicates	-12451
▁announced	-12452
▁staircase	-12453
▁submatrix	-12454
▁symmetric	-12455
▁traveling	-12456
▁accumulate	-12457
▁checkpoint	-12458
▁occurences	-12459
▁originally	-12460
▁spaceships	-12461
\,244\,353$.	-12462
▁1000000007.	-12463
▁Informatics	-12464
▁definitions	-12465
▁alphanumeric	-12466
▁concatenating	-12467
'[	-12468
/8	-12469
AY	-12470
DF	-12471
IG	-12472
OM	-12473
SR	-12474
`;	-12475
eg	-12476
eo	-12477
sf	-12478
{5	-12479
ке	-12480
('*	-12481
)+1	-12482
+7$	-12483
1)$	-12484
118	-12485
12)	-12486
12]	-12487
14:	-12488
15:	-12489
23.	-12490
27:	-12491
3))	-12492
333	-12493
3]$	-12494
46.	-12495
5":	-12496
56,	-12497
678	-12498
716	-12499
738	-12500
888	-12501
9-2	-12502
Fib	-12503
Flo	-12504
GCD	-12505
Lar	-12506
WWW	-12507
^2)	-12508
`),	-12509
acb	-12510
cab	-12511
ccc	-12512
nok	-12513
pan	-12514
stk	-12515
ulb	-12516
ulu	-12517
uru	-12518
вол	-12519
лет	-12520
−1$	-12521
▁"$	-12522
▁#4	-12523
▁'/	-12524
▁(8	-12525
▁(9	-12526
▁+-	-12527
▁02	-12528
▁62	-12529
▁BA	-12530
▁Lo	-12531
▁OF	-12532
▁Ri	-12533
▁ay	-12534
▁bg	-12535
▁vo	-12536
▁до	-12537
▁об	-12538
")["	-12539
-1]=	-12540
0.5,	-12541
0004	-12542
1015	-12543
1601	-12544
2-08	-12545
2089	-12546
215,	-12547
2499	-12548
281,	-12549
2[0]	-12550
3"],	-12551
37.5	-12552
6985	-12553
742,	-12554
8095	-12555
Anna	-12556
Edge	-12557
Oper	-12558
Zero	-12559
[0]=	-12560
]]])	-12561
adab	-12562
amen	-12563
amps	-12564
calc	-12565
call	-12566
elve	-12567
fast	-12568
hard	-12569
icip	-12570
iron	-12571
isin	-12572
jane	-12573
lled	-12574
nyky	-12575
olis	-12576
page	-12577
rels	-12578
then	-12579
triu	-12580
émon	-12581
▁"")	-12582
▁():	-12583
▁108	-12584
▁11]	-12585
▁188	-12586
▁37,	-12587
▁7]$	-12588
▁Hal	-12589
▁Inf	-12590
▁Kar	-12591
▁Pre	-12592
▁Say	-12593
▁War	-12594
▁[15	-12595
▁bri	-12596
▁cab	-12597
▁cra	-12598
▁hat	-12599
▁mec	-12600
▁rat	-12601
▁svm	-12602
▁мож	-12603
▁пос	-12604
1797,	-12605
30517	-12606
4,5,6	-12607
actly	-12608
ashed	-12609
asons	-12610
atter	-12611
claim	-12612
holes	-12613
indow	-12614
iring	-12615
olars	-12616
shuff	-12617
stand	-12618
third	-12619
udget	-12620
ushky	-12621
works	-12622
▁$9$.	-12623
▁$[7,	-12624
▁')':	-12625
▁0)$,	-12626
▁0.0,	-12627
▁0.75	-12628
▁1)·(	-12629
▁1.0,	-12630
▁11],	-12631
▁1]})	-12632
▁2898	-12633
▁3.0,	-12634
▁Capt	-12635
▁Rain	-12636
▁Tell	-12637
▁abab	-12638
▁abba	-12639
▁diss	-12640
▁gear	-12641
▁inpl	-12642
▁iron	-12643
▁pear	-12644
▁proc	-12645
▁slot	-12646
▁wild	-12647
▁wolf	-12648
(1000,	-12649
([[10,	-12650
animal	-12651
antity	-12652
atered	-12653
dechef	-12654
gather	-12655
icense	-12656
linalg	-12657
market	-12658
onight	-12659
utions	-12660
▁10^5.	-12661
▁Chris	-12662
▁Katie	-12663
▁Noora	-12664
▁Power	-12665
▁Split	-12666
▁[1,0,	-12667
▁[1,3,	-12668
▁[2,1,	-12669
▁aware	-12670
▁dance	-12671
▁dynam	-12672
▁early	-12673
▁fewer	-12674
▁goals	-12675
▁hypot	-12676
▁miles	-12677
▁poles	-12678
▁prett	-12679
▁tails	-12680
▁toler	-12681
▁trace	-12682
6000.0,	-12683
arenyky	-12684
defined	-12685
numeric	-12686
pointer	-12687
polygon	-12688
squeeze	-12689
variate	-12690
▁106910	-12691
▁10^18)	-12692
▁10^5)$	-12693
▁Hunter	-12694
▁Simple	-12695
▁anyway	-12696
▁behavi	-12697
▁chains	-12698
▁defeat	-12699
▁domain	-12700
▁driver	-12701
▁escape	-12702
▁picked	-12703
▁remind	-12704
▁rocket	-12705
▁scalar	-12706
▁shapes	-12707
▁shower	-12708
▁stolen	-12709
▁temple	-12710
▁thrown	-12711
/1/18','	-12712
>>>>>>>>	-12713
StringIO	-12714
▁"2015-0	-12715
▁2015-10	-12716
▁Methods	-12717
▁barrels	-12718
▁battles	-12719
▁castles	-12720
▁charged	-12721
▁clearly	-12722
▁cooking	-12723
▁digital	-12724
▁lessons	-12725
▁nucleot	-12726
▁protein	-12727
▁sectors	-12728
▁somehow	-12729
▁tourist	-12730
▁unlucky	-12731
▁welcome	-12732
▁willing	-12733
bracketed	-12734
fibonacci	-12735
necessary	-12736
reducible	-12737
▁Cheffina	-12738
▁Function	-12739
▁filtered	-12740
▁fragment	-12741
▁galushky	-12742
▁reposted	-12743
▁research	-12744
▁software	-12745
▁subgraph	-12746
▁vertexes	-12747
▁10^{18}$)	-12748
▁addresses	-12749
▁countries	-12750
▁dangerous	-12751
▁diagonals	-12752
▁elections	-12753
▁electrons	-12754
▁minimized	-12755
▁strongest	-12756
8474121094,	-12757
▁achievable	-12758
▁calculator	-12759
▁collecting	-12760
▁coursework	-12761
▁enumerated	-12762
▁friendship	-12763
▁gridsearch	-12764
▁previously	-12765
▁regression	-12766
▁количество	-12767
arrangements	-12768
▁accordingly	-12769
▁communicate	-12770
▁exclamation	-12771
▁identifiers	-12772
▁multiplying	-12773
▁rearranging	-12774
▁translation	-12775
▁calculations	-12776
▁denomination	-12777
▁specifically	-12778
43210987654321	-12779
▁automatically	-12780
▁conversations	-12781
lexicographical	-12782
▁collectionsdef	-12783
'$	-12784
,-	-12785
-7	-12786
.#	-12787
2'	-12788
5.	-12789
ML	-12790
Ry	-12791
UG	-12792
UI	-12793
Xi	-12794
\"	-12795
_(	-12796
bx	-12797
dw	-12798
ei	-12799
lc	-12800
xi	-12801
zo	-12802
}]	-12803
Пр	-12804
оз	-12805
ре	-12806
して	-12807
%2:	-12808
)],	-12809
.",	-12810
18:	-12811
19:	-12812
22:	-12813
37:	-12814
3]]	-12815
6$.	-12816
648	-12817
728	-12818
74,	-12819
769	-12820
8,8	-12821
80:	-12822
91,	-12823
='\	-12824
Com	-12825
LIS	-12826
Ziz	-12827
_1.	-12828
_{3	-12829
aze	-12830
bro	-12831
cia	-12832
dct	-12833
hik	-12834
lor	-12835
nis	-12836
rer	-12837
rez	-12838
uto	-12839
yor	-12840
мож	-12841
▁"[	-12842
▁'4	-12843
▁-9	-12844
▁3`	-12845
▁61	-12846
▁7-	-12847
▁Ci	-12848
▁IO	-12849
▁bj	-12850
▁ka	-12851
▁nc	-12852
▁ow	-12853
▁ps	-12854
▁xi	-12855
▁zz	-12856
▁|4	-12857
▁дв	-12858
"]],	-12859
')))	-12860
("-1	-12861
()()	-12862
(0))	-12863
+1$.	-12864
---|	-12865
-1]-	-12866
//2]	-12867
1.0,	-12868
1110	-12869
1176	-12870
16.9	-12871
25.4	-12872
3134	-12873
4,4,	-12874
6649	-12875
750,	-12876
792,	-12877
8499	-12878
8730	-12879
==3:	-12880
=[];	-12881
>=1:	-12882
[2]:	-12883
\*\*	-12884
]-=1	-12885
abca	-12886
cury	-12887
erse	-12888
gant	-12889
ingo	-12890
ises	-12891
kind	-12892
love	-12893
minx	-12894
none	-12895
ooms	-12896
oooo	-12897
quid	-12898
tile	-12899
xyxy	-12900
zone	-12901
}(1,	-12902
ател	-12903
▁'2'	-12904
▁12)	-12905
▁136	-12906
▁149	-12907
▁159	-12908
▁310	-12909
▁499	-12910
▁777	-12911
▁Are	-12912
▁Nam	-12913
▁Sig	-12914
▁Top	-12915
▁[1.	-12916
▁ais	-12917
▁dad	-12918
▁shr	-12919
▁src	-12920
%2==0	-12921
(1<<(	-12922
-2016	-12923
00010	-12924
10**5	-12925
1601,	-12926
1953,	-12927
34923	-12928
38265	-12929
7.75,	-12930
ASCII	-12931
Cycle	-12932
Divis	-12933
Total	-12934
White	-12935
ZizoS	-12936
[1]),	-12937
_{2},	-12938
acted	-12939
asant	-12940
below	-12941
comed	-12942
ednes	-12943
encry	-12944
esome	-12945
ffice	-12946
going	-12947
grams	-12948
iddle	-12949
itude	-12950
occup	-12951
oding	-12952
offer	-12953
paren	-12954
razil	-12955
robot	-12956
style	-12957
years	-12958
▁"100	-12959
▁$5$-	-12960
▁$[6,	-12961
▁'1'.	-12962
▁10$.	-12963
▁1]])	-12964
▁500)	-12965
▁Alph	-12966
▁Fafa	-12967
▁Paul	-12968
▁[[3,	-12969
▁acid	-12970
▁buff	-12971
▁farm	-12972
▁hang	-12973
▁hire	-12974
▁iris	-12975
▁lear	-12976
▁mins	-12977
▁reve	-12978
▁seed	-12979
▁sofa	-12980
▁клет	-12981
**0.5)	-12982
-1)//2	-12983
.0,25.	-12984
2014-0	-12985
amazon	-12986
apples	-12987
author	-12988
elcome	-12989
ertain	-12990
ferent	-12991
getter	-12992
gument	-12993
ifying	-12994
rotate	-12995
smooth	-12996
urious	-12997
yticks	-12998
▁$10$,	-12999
▁0.2],	-13000
▁200$)	-13001
▁Allen	-13002
▁Color	-13003
▁Hello	-13004
▁Malek	-13005
▁Nauuo	-13006
▁Prime	-13007
▁afore	-13008
▁alone	-13009
▁anten	-13010
▁bytes	-13011
▁chunk	-13012
▁cumul	-13013
▁decks	-13014
▁draws	-13015
▁flags	-13016
▁frogs	-13017
▁genre	-13018
▁lunch	-13019
▁peaks	-13020
▁rocks	-13021
▁roses	-13022
▁ruler	-13023
▁slope	-13024
▁strng	-13025
Longest	-13026
Nothing	-13027
atively	-13028
maxsize	-13029
nearest	-13030
subplot	-13031
urvived	-13032
weights	-13033
▁Binary	-13034
▁Figure	-13035
▁Monday	-13036
▁Values	-13037
▁detach	-13038
▁finals	-13039
▁hacker	-13040
▁instit	-13041
▁killed	-13042
▁latest	-13043
▁metres	-13044
▁missed	-13045
▁padded	-13046
▁pearls	-13047
▁recent	-13048
▁rupees	-13049
▁schedu	-13050
▁shared	-13051
▁souven	-13052
▁trainY	-13053
▁violet	-13054
▁voting	-13055
▁yields	-13056
▁которы	-13057
44444444	-13058
PQRSTUVW	-13059
Subarray	-13060
ednesday	-13061
▁(10^9+7	-13062
▁Decimal	-13063
▁Firstly	-13064
▁Initial	-13065
▁Luckily	-13066
▁Phoenix	-13067
▁[0,0,0]	-13068
▁checker	-13069
▁compose	-13070
▁conduct	-13071
▁devices	-13072
▁diamond	-13073
▁diction	-13074
▁glasses	-13075
▁keeping	-13076
▁nonzero	-13077
▁pebbles	-13078
▁puzzles	-13079
▁rewards	-13080
▁sausage	-13081
▁session	-13082
▁shorten	-13083
▁subplot	-13084
▁summing	-13085
▁suspect	-13086
▁turning	-13087
▁volumes	-13088
processor	-13089
sensitive	-13090
▁Features	-13091
▁Integers	-13092
▁biscuits	-13093
▁conveyor	-13094
▁criteria	-13095
▁cupboard	-13096
▁episodes	-13097
▁flipping	-13098
▁kangaroo	-13099
▁machines	-13100
▁nonempty	-13101
▁religion	-13102
▁varenyky	-13103
▁welcomed	-13104
ZizoScream	-13105
impossible	-13106
▁Cartesian	-13107
▁Naturally	-13108
▁ambiguous	-13109
▁coincides	-13110
▁collision	-13111
▁effective	-13112
▁principal	-13113
▁sweetness	-13114
▁unchanged	-13115
overlapping	-13116
▁998244353.	-13117
▁cumulative	-13118
▁derivative	-13119
▁guarantees	-13120
▁skyscraper	-13121
▁vocabulary	-13122
similarities	-13123
|■■|■■|■■|■■	-13124
▁connections	-13125
▁contestants	-13126
▁electricity	-13127
▁encountered	-13128
▁whitespaces	-13129
▁applications	-13130
▁arrangements	-13131
▁conversation	-13132
▁lexicographic	-13133
▁aforementioned	-13134
#,	-13135
$?	-13136
+[	-13137
1<	-13138
3=	-13139
4(	-13140
7\	-13141
BR	-13142
CG	-13143
Do	-13144
HI	-13145
Sl	-13146
UD	-13147
ju	-13148
}'	-13149
ри	-13150
ых	-13151
−1	-13152
▁Н	-13153
!).	-13154
"})	-13155
-4,	-13156
//=	-13157
/3)	-13158
17:	-13159
2=0	-13160
3).	-13161
336	-13162
4,5	-13163
43:	-13164
54:	-13165
554	-13166
83.	-13167
876	-13168
92,	-13169
950	-13170
=8,	-13171
ACT	-13172
IOU	-13173
Mar	-13174
Occ	-13175
Ros	-13176
__,	-13177
aku	-13178
asp	-13179
eat	-13180
eth	-13181
het	-13182
jpg	-13183
ony	-13184
oop	-13185
tom	-13186
urs	-13187
vey	-13188
|+|	-13189
▁-7	-13190
▁0'	-13191
▁0}	-13192
▁3|	-13193
▁68	-13194
▁82	-13195
▁:,	-13196
▁CD	-13197
▁Wr	-13198
▁XP	-13199
▁XX	-13200
▁rl	-13201
((1,	-13202
(0).	-13203
(12,	-13204
(3)]	-13205
,16,	-13206
,39,	-13207
,45,	-13208
...]	-13209
.02,	-13210
1)):	-13211
1123	-13212
1460	-13213
2'],	-13214
220,	-13215
221,	-13216
2324	-13217
2377	-13218
25.5	-13219
25.9	-13220
28.7	-13221
321,	-13222
48",	-13223
4],[	-13224
5,39	-13225
578,	-13226
8496	-13227
=0,0	-13228
=3$,	-13229
Aspl	-13230
Cuts	-13231
Jane	-13232
NODE	-13233
Next	-13234
Path	-13235
Root	-13236
User	-13237
_1),	-13238
_2),	-13239
alen	-13240
docs	-13241
ffff	-13242
ilda	-13243
izou	-13244
llig	-13245
marg	-13246
olas	-13247
raid	-13248
town	-13249
ulus	-13250
unks	-13251
▁(8,	-13252
▁112	-13253
▁15)	-13254
▁210	-13255
▁211	-13256
▁224	-13257
▁239	-13258
▁25.	-13259
▁319	-13260
▁365	-13261
▁72.	-13262
▁8),	-13263
▁9).	-13264
▁Bel	-13265
▁Cat	-13266
▁Emp	-13267
▁Fun	-13268
▁Key	-13269
▁Rev	-13270
▁Tri	-13271
▁[".	-13272
▁[28	-13273
▁arc	-13274
▁cyc	-13275
▁dia	-13276
▁iff	-13277
▁psy	-13278
▁ran	-13279
▁svr	-13280
▁tip	-13281
▁uyi	-13282
▁wyn	-13283
▁{3,	-13284
)==1:	-13285
0000,	-13286
00001	-13287
2578,	-13288
275,,	-13289
31508	-13290
34576	-13291
4,1,"	-13292
4,46.	-13293
6836,	-13294
Aaron	-13295
Pairs	-13296
[0]*(	-13297
abers	-13298
amber	-13299
azine	-13300
binom	-13301
brown	-13302
error	-13303
every	-13304
grass	-13305
guess	-13306
kkers	-13307
mates	-13308
minor	-13309
orest	-13310
sided	-13311
super	-13312
umble	-13313
▁109,	-13314
▁1160	-13315
▁2.5,	-13316
▁2500	-13317
▁3]$;	-13318
▁7]])	-13319
▁File	-13320
▁Jiro	-13321
▁Keep	-13322
▁Robo	-13323
▁Team	-13324
▁USED	-13325
▁[-3,	-13326
▁[16,	-13327
▁`-1`	-13328
▁`100	-13329
▁anal	-13330
▁coal	-13331
▁cock	-13332
▁desc	-13333
▁filt	-13334
▁gram	-13335
▁hats	-13336
▁maps	-13337
▁mine	-13338
▁slog	-13339
▁syll	-13340
▁wide	-13341
▁кажд	-13342
▁перв	-13343
,,8,2,	-13344
.0,17.	-13345
1,1,2,	-13346
10^5).	-13347
2,3,3,	-13348
3,1,0,	-13349
7.55,,	-13350
Orange	-13351
agheer	-13352
ashion	-13353
carded	-13354
enerys	-13355
events	-13356
itical	-13357
radius	-13358
rounds	-13359
uthors	-13360
vector	-13361
▁$2$).	-13362
▁(1,1)	-13363
▁(1,2)	-13364
▁---->	-13365
▁10.99	-13366
▁500$)	-13367
▁Euler	-13368
▁Party	-13369
▁Point	-13370
▁Zizou	-13371
▁agree	-13372
▁brand	-13373
▁click	-13374
▁discs	-13375
▁fails	-13376
▁jewel	-13377
▁patty	-13378
▁ramen	-13379
▁rider	-13380
▁scram	-13381
▁shops	-13382
▁steal	-13383
.6875,,	-13384
1,1,3,"	-13385
1601,56	-13386
2,0,2,"	-13387
4,1,3,"	-13388
6,0,1,"	-13389
6,0,2,"	-13390
7,1,2,"	-13391
9,1,1,"	-13392
Asplund	-13393
Goodwin	-13394
IntList	-13395
Integer	-13396
Johnson	-13397
William	-13398
capital	-13399
lfriend	-13400
percent	-13401
rolling	-13402
winning	-13403
▁1-----	-13404
▁10^9)$	-13405
▁310128	-13406
▁310131	-13407
▁Change	-13408
▁Design	-13409
▁Gustaf	-13410
▁Kinder	-13411
▁Louise	-13412
▁Watson	-13413
▁client	-13414
▁corrid	-13415
▁fields	-13416
▁joined	-13417
▁lesser	-13418
▁maxSum	-13419
▁portal	-13420
▁safely	-13421
▁seller	-13422
▁shurik	-13423
▁spaced	-13424
▁topics	-13425
#.#.#.#.	-13426
,25,1,0,	-13427
,38,0,0,	-13428
4,46.9,,	-13429
========	-13430
Distance	-13431
diagonal	-13432
▁"2014-0	-13433
▁.......	-13434
▁Adilbek	-13435
▁Feature	-13436
▁Solomon	-13437
▁[0,0,0,	-13438
▁applies	-13439
▁auction	-13440
▁bekkers	-13441
▁clients	-13442
▁concept	-13443
▁dungeon	-13444
▁flipped	-13445
▁history	-13446
▁implies	-13447
▁iterate	-13448
▁padding	-13449
▁pokémon	-13450
▁summary	-13451
▁topmost	-13452
▁workout	-13453
hierarchy	-13454
▁10^{9}$)	-13455
▁1415777_	-13456
▁1415805_	-13457
▁1415884_	-13458
▁Learning	-13459
▁Starting	-13460
▁Yaroslav	-13461
▁compared	-13462
▁decimals	-13463
▁farthest	-13464
▁festival	-13465
▁formulas	-13466
▁identity	-13467
▁lanterns	-13468
▁occurred	-13469
▁ordinary	-13470
▁personal	-13471
▁pressing	-13472
▁rankdata	-13473
▁rotating	-13474
▁spanning	-13475
▁villages	-13476
2016-05-19	-13477
Palindrome	-13478
▁Enjoyable	-13479
▁basically	-13480
▁discarded	-13481
▁juiciness	-13482
▁traversal	-13483
▁unordered	-13484
expovariate	-13485
▁"2017-03-0	-13486
▁acceptable	-13487
▁beforehand	-13488
▁capitalize	-13489
▁inequality	-13490
▁percentage	-13491
▁simplified	-13492
MrZizoScream	-13493
▁2144,46.9,,	-13494
▁assignments	-13495
▁checkpoints	-13496
▁equilateral	-13497
▁illustrates	-13498
▁interpolate	-13499
▁irreducible	-13500
▁supermarket	-13501
▁Kindergarten	-13502
▁construction	-13503
▁intermediate	-13504
1601,56.4958,,	-13505
▁denominations	-13506
▁polydivisible	-13507
▁unfortunately	-13508
▁transformations	-13509
$2	-13510
+)	-13511
+*	-13512
/%	-13513
0'	-13514
3+	-13515
3`	-13516
7-	-13517
BC	-13518
Bi	-13519
Fl	-13520
KB	-13521
SU	-13522
UX	-13523
[5	-13524
]}	-13525
^4	-13526
bj	-13527
hb	-13528
hr	-13529
mk	-13530
ар	-13531
ия	-13532
си	-13533
▁∈	-13534
(",	-13535
)+"	-13536
)<=	-13537
)|!	-13538
.90	-13539
/2:	-13540
007	-13541
16:	-13542
1},	-13543
2].	-13544
768	-13545
APP	-13546
ARD	-13547
Ann	-13548
COD	-13549
ENT	-13550
Inf	-13551
NOW	-13552
RCV	-13553
[5]	-13554
[['	-13555
acy	-13556
ami	-13557
avg	-13558
axy	-13559
dna	-13560
gas	-13561
pin	-13562
pur	-13563
ref	-13564
req	-13565
say	-13566
una	-13567
uyi	-13568
yyy	-13569
{5}	-13570
▁-(	-13571
▁1+	-13572
▁2|	-13573
▁86	-13574
▁Ah	-13575
▁Hu	-13576
▁Mc	-13577
▁Os	-13578
▁SE	-13579
▁TI	-13580
▁UN	-13581
▁WA	-13582
▁Xi	-13583
▁`+	-13584
▁hs	-13585
▁mr	-13586
▁mt	-13587
▁nr	-13588
▁oo	-13589
▁ti	-13590
▁ws	-13591
▁он	-13592
("")	-13593
());	-13594
(1),	-13595
(2**	-13596
."""	-13597
.75,	-13598
0009	-13599
0]])	-13600
111,	-13601
1177	-13602
1234	-13603
2-10	-13604
2617	-13605
3579	-13606
360,	-13607
361,	-13608
3885	-13609
4577	-13610
6777	-13611
6784	-13612
7226	-13613
7778	-13614
8,7,	-13615
841,	-13616
BBBB	-13617
Full	-13618
Game	-13619
Make	-13620
RRRR	-13621
[-1:	-13622
[2]]	-13623
]+1)	-13624
_{3,	-13625
avig	-13626
bour	-13627
buzz	-13628
elly	-13629
ensi	-13630
hell	-13631
iant	-13632
mach	-13633
mate	-13634
peak	-13635
ties	-13636
tune	-13637
ueue	-13638
usha	-13639
wart	-13640
well	-13641
wood	-13642
yond	-13643
ного	-13644
▁#3:	-13645
▁(-1	-13646
▁1/2	-13647
▁19.	-13648
▁23.	-13649
▁235	-13650
▁244	-13651
▁26,	-13652
▁456	-13653
▁66,	-13654
▁735	-13655
▁75,	-13656
▁AVG	-13657
▁Who	-13658
▁[('	-13659
▁ate	-13660
▁caf	-13661
▁cas	-13662
▁gun	-13663
▁imb	-13664
▁ink	-13665
▁ker	-13666
▁kno	-13667
▁sat	-13668
▁sho	-13669
▁tgt	-13670
▁tit	-13671
▁tro	-13672
▁все	-13673
("0")	-13674
-1)*(	-13675
1,20,	-13676
10110	-13677
1172,	-13678
15:00	-13679
2,29.	-13680
3086,	-13681
6,27.	-13682
7,11,	-13683
==-1:	-13684
AEIOU	-13685
Begin	-13686
Month	-13687
Smith	-13688
[-1].	-13689
[1]):	-13690
][1]=	-13691
]]]),	-13692
ambur	-13693
anish	-13694
apper	-13695
bably	-13696
camel	-13697
dates	-13698
ersen	-13699
flips	-13700
found	-13701
heavy	-13702
hered	-13703
ibles	-13704
ifies	-13705
neigh	-13706
oogle	-13707
optim	-13708
ratio	-13709
stems	-13710
stery	-13711
stock	-13712
symme	-13713
udent	-13714
▁$20$	-13715
▁$6$-	-13716
▁0)$.	-13717
▁1011	-13718
▁103,	-13719
▁110,	-13720
▁4000	-13721
▁Bill	-13722
▁Dict	-13723
▁Many	-13724
▁Mark	-13725
▁Mars	-13726
▁Rows	-13727
▁aaaa	-13728
▁atol	-13729
▁bish	-13730
▁clst	-13731
▁corp	-13732
▁fare	-13733
▁hint	-13734
▁lets	-13735
▁wife	-13736
%2==1:	-13737
3,1,1,	-13738
5,6,7,	-13739
Andrew	-13740
CoDeer	-13741
],[],[	-13742
]==-1:	-13743
ashing	-13744
astman	-13745
atever	-13746
comput	-13747
divide	-13748
ingers	-13749
jected	-13750
phrase	-13751
stable	-13752
ticket	-13753
venger	-13754
▁-10^9	-13755
▁10^9.	-13756
▁13:50	-13757
▁1][0]	-13758
▁43.64	-13759
▁54.90	-13760
▁Aaron	-13761
▁Defin	-13762
▁NumPy	-13763
▁Smart	-13764
▁Stack	-13765
▁Techn	-13766
▁[-1]*	-13767
▁[3,1,	-13768
▁buyer	-13769
▁deals	-13770
▁demon	-13771
▁ended	-13772
▁funny	-13773
▁grain	-13774
▁inten	-13775
▁lands	-13776
▁loser	-13777
▁phase	-13778
▁quadr	-13779
▁rhomb	-13780
▁shark	-13781
▁spoon	-13782
▁thick	-13783
▁umbre	-13784
▁второ	-13785
%2==0):	-13786
floresc	-13787
leftExp	-13788
lighted	-13789
matched	-13790
perform	-13791
sklearn	-13792
▁500000	-13793
▁Friend	-13794
▁People	-13795
▁bamboo	-13796
▁beyond	-13797
▁boards	-13798
▁borrow	-13799
▁cuboid	-13800
▁dancer	-13801
▁doctor	-13802
▁flying	-13803
▁header	-13804
▁images	-13805
▁mechan	-13806
▁metric	-13807
▁mobile	-13808
▁orient	-13809
▁packet	-13810
▁recomm	-13811
▁refers	-13812
▁robber	-13813
▁surpri	-13814
▁theore	-13815
▁tricks	-13816
0],[0,0,	-13817
coloring	-13818
esterday	-13819
matching	-13820
mutation	-13821
occupied	-13822
playback	-13823
▁2013-10	-13824
▁2014-10	-13825
▁Knights	-13826
▁Program	-13827
▁Strings	-13828
▁algebra	-13829
▁attende	-13830
▁holiday	-13831
▁lemming	-13832
▁million	-13833
▁minions	-13834
▁permute	-13835
▁proceed	-13836
▁startup	-13837
▁watered	-13838
','2014-0	-13839
23706055,	-13840
ascending	-13841
excluding	-13842
frequency	-13843
neighbour	-13844
uppercase	-13845
▁0.023844	-13846
▁administ	-13847
▁asterisk	-13848
▁compress	-13849
▁corridor	-13850
▁decipher	-13851
▁endpoint	-13852
▁entirely	-13853
▁familiar	-13854
▁frequent	-13855
▁involves	-13856
▁launched	-13857
▁minister	-13858
▁necklace	-13859
▁powerful	-13860
▁priority	-13861
▁scramble	-13862
▁singular	-13863
▁topology	-13864
degenerate	-13865
setdefault	-13866
▁imbalance	-13867
▁interview	-13868
▁providing	-13869
▁published	-13870
▁searching	-13871
▁superhero	-13872
▁transpose	-13873
▁uniformly	-13874
EFGHIJKLMNO	-13875
▁Parameters	-13876
▁connection	-13877
▁contradict	-13878
▁especially	-13879
▁evaluation	-13880
▁extensions	-13881
▁matryoshka	-13882
▁organizers	-13883
▁statistics	-13884
▁experienced	-13885
▁opportunity	-13886
▁suggestions	-13887
▁unnecessary	-13888
▁|2019/04/02	-13889
▁presentation	-13890
▁progressions	-13891
▁satisfaction	-13892
▁factorization	-13893
................	-13894
▁123456789012345	-13895
$'	-13896
&(	-13897
3_	-13898
>1	-13899
FG	-13900
PI	-13901
PR	-13902
PS	-13903
Pl	-13904
RC	-13905
RM	-13906
Sy	-13907
TA	-13908
_[	-13909
fp	-13910
hq	-13911
km	-13912
rl	-13913
ti	-13914
yx	-13915
zh	-13916
|1	-13917
·3	-13918
уч	-13919
()}	-13920
(_)	-13921
)!=	-13922
)$;	-13923
0-9	-13924
11}	-13925
25)	-13926
2},	-13927
31:	-13928
322	-13929
33:	-13930
34:	-13931
36:	-13932
47:	-13933
48:	-13934
4]$	-13935
5':	-13936
51,	-13937
686	-13938
7.5	-13939
813	-13940
9+7	-13941
=[1	-13942
App	-13943
Far	-13944
NUM	-13945
Wor	-13946
]-1	-13947
]="	-13948
_4$	-13949
_50	-13950
aru	-13951
bba	-13952
cmp	-13953
cod	-13954
cox	-13955
dat	-13956
fed	-13957
hue	-13958
nas	-13959
rho	-13960
tok	-13961
tor	-13962
вар	-13963
пис	-13964
▁&=	-13965
▁'^	-13966
▁05	-13967
▁8-	-13968
▁BW	-13969
▁LR	-13970
▁Mt	-13971
▁Ni	-13972
▁]$	-13973
▁`-	-13974
▁cf	-13975
▁cn	-13976
▁gy	-13977
▁kd	-13978
((3,	-13979
(11)	-13980
(8):	-13981
+1]]	-13982
/571	-13983
1499	-13984
15],	-13985
19.9	-13986
1[1]	-13987
21.0	-13988
2123	-13989
227,	-13990
250,	-13991
2525	-13992
262.	-13993
28.4	-13994
30.0	-13995
36.5	-13996
4824	-13997
4931	-13998
671,	-13999
7595	-14000
781,	-14001
8530	-14002
9-30	-14003
938,	-14004
Fizz	-14005
Hint	-14006
Jump	-14007
SAFE	-14008
Team	-14009
Util	-14010
][3]	-14011
_1)$	-14012
adow	-14013
aims	-14014
aker	-14015
andy	-14016
apor	-14017
berg	-14018
efes	-14019
fold	-14020
grad	-14021
iard	-14022
ivek	-14023
mies	-14024
ongo	-14025
othy	-14026
real	-14027
sius	-14028
tips	-14029
{3},	-14030
▁"*"	-14031
▁"1,	-14032
▁"{}	-14033
▁$(2	-14034
▁01-	-14035
▁1);	-14036
▁13)	-14037
▁15]	-14038
▁17.	-14039
▁1`,	-14040
▁21.	-14041
▁225	-14042
▁4.,	-14043
▁4.0	-14044
▁888	-14045
▁9.0	-14046
▁Abs	-14047
▁Fed	-14048
▁Ham	-14049
▁INT	-14050
▁Nut	-14051
▁Pay	-14052
▁Try	-14053
▁`[1	-14054
▁bes	-14055
▁itr	-14056
▁law	-14057
▁lin	-14058
▁mlb	-14059
▁nil	-14060
▁rac	-14061
▁rap	-14062
▁tak	-14063
▁рав	-14064
▁сим	-14065
▁это	-14066
3,26.	-14067
6914,	-14068
8906,	-14069
Brown	-14070
Field	-14071
Price	-14072
Speed	-14073
[...,	-14074
aging	-14075
armot	-14076
cdist	-14077
chull	-14078
email	-14079
exist	-14080
gener	-14081
metal	-14082
minus	-14083
organ	-14084
pivot	-14085
route	-14086
shirt	-14087
shots	-14088
simul	-14089
until	-14090
useri	-14091
watch	-14092
▁""""	-14093
▁"1".	-14094
▁$1$)	-14095
▁$1$:	-14096
▁$[1]	-14097
▁'*':	-14098
▁'-':	-14099
▁0101	-14100
▁1$),	-14101
▁1,2,	-14102
▁105,	-14103
▁5]$.	-14104
▁6.0,	-14105
▁????	-14106
▁ABCD	-14107
▁Blue	-14108
▁Fact	-14109
▁Most	-14110
▁NEXT	-14111
▁[100	-14112
▁ecdf	-14113
▁eggs	-14114
▁gone	-14115
▁grad	-14116
▁joke	-14117
▁mile	-14118
▁okay	-14119
▁pens	-14120
▁pool	-14121
▁semi	-14122
▁shar	-14123
▁sock	-14124
▁uniq	-14125
▁wake	-14126
▁wear	-14127
▁whom	-14128
.0,29.	-14129
2,1,1,	-14130
Duplic	-14131
Format	-14132
Weight	-14133
battle	-14134
chocol	-14135
choose	-14136
either	-14137
forall	-14138
fruits	-14139
icable	-14140
kwargs	-14141
layout	-14142
mmings	-14143
salida	-14144
▁$1,2,	-14145
▁(10**	-14146
▁10^6.	-14147
▁Claus	-14148
▁Incre	-14149
▁Intro	-14150
▁Place	-14151
▁Simon	-14152
▁Snack	-14153
▁Valid	-14154
▁Words	-14155
▁[0,1]	-14156
▁[0.9,	-14157
▁[2,4,	-14158
▁`-1`.	-14159
▁areas	-14160
▁atoms	-14161
▁began	-14162
▁cheat	-14163
▁earns	-14164
▁elect	-14165
▁facts	-14166
▁grows	-14167
▁hired	-14168
▁laser	-14169
▁links	-14170
▁minor	-14171
▁noise	-14172
▁truly	-14173
▁upset	-14174
▁views	-14175
▁waste	-14176
abacaba	-14177
berland	-14178
greater	-14179
gressor	-14180
ijkstra	-14181
naments	-14182
regions	-14183
smaller	-14184
triplet	-14185
▁1000),	-14186
▁Attack	-14187
▁Mister	-14188
▁afraid	-14189
▁aggreg	-14190
▁bouncy	-14191
▁budget	-14192
▁chests	-14193
▁cinema	-14194
▁credit	-14195
▁doughn	-14196
▁explos	-14197
▁kinder	-14198
▁linked	-14199
▁oddity	-14200
▁parade	-14201
▁preser	-14202
▁saying	-14203
▁slight	-14204
▁slogan	-14205
▁slopes	-14206
▁syntax	-14207
▁videos	-14208
▁worked	-14209
fairness	-14210
products	-14211
stations	-14212
swapcase	-14213
▁10^6$),	-14214
▁10^6$).	-14215
▁Captain	-14216
▁Sagheer	-14217
▁article	-14218
▁channel	-14219
▁college	-14220
▁confirm	-14221
▁copydef	-14222
▁dancers	-14223
▁deposit	-14224
▁diagram	-14225
▁disappo	-14226
▁drawing	-14227
▁endTime	-14228
▁exceeds	-14229
▁fashion	-14230
▁forever	-14231
▁hamming	-14232
▁highway	-14233
▁imagine	-14234
▁impress	-14235
▁parties	-14236
▁poisson	-14237
▁reasons	-14238
▁sharing	-14239
▁subtask	-14240
▁tonight	-14241
▁unhappy	-14242
76293945,	-14243
Transform	-14244
intervals	-14245
▁0.019075	-14246
▁10^{100}	-14247
▁Appleman	-14248
▁Assuming	-14249
▁Japanese	-14250
▁Siruseri	-14251
▁abundant	-14252
▁accident	-14253
▁appended	-14254
▁coverage	-14255
▁covering	-14256
▁database	-14257
▁datasets	-14258
▁engineer	-14259
▁indicate	-14260
▁investig	-14261
▁official	-14262
▁printing	-14263
▁scholars	-14264
▁subplots	-14265
-2,-1,-1):	-14266
0000:0000:	-14267
capitalize	-14268
descending	-14269
▁*********	-14270
▁[[1,2,3],	-14271
▁computing	-14272
▁container	-14273
▁infloresc	-14274
▁scenarios	-14275
▁sensitive	-14276
▁shuffling	-14277
01234567890	-14278
concatenate	-14279
▁activation	-14280
▁activities	-14281
▁boundaries	-14282
▁disappears	-14283
▁exhibition	-14284
▁girlfriend	-14285
▁triangular	-14286
replacements	-14287
▁alternately	-14288
▁nonnegative	-14289
▁repetitions	-14290
▁responsible	-14291
▁transaction	-14292
▁Introduction	-14293
▁implementation	-14294
"+	-14295
*9	-14296
/9	-14297
2\	-14298
Am	-14299
EM	-14300
FR	-14301
La	-14302
Ro	-14303
Sk	-14304
UB	-14305
kn	-14306
pc	-14307
tm	-14308
vn	-14309
vy	-14310
xr	-14311
yo	-14312
ми	-14313
▁а	-14314
▁х	-14315
♙♙	-14316
♟♟	-14317
"]`	-14318
('[	-14319
)")	-14320
*2)	-14321
+05	-14322
-0.	-14323
.**	-14324
0)$	-14325
0,,	-14326
04:	-14327
08:	-14328
09:	-14329
11"	-14330
4,,	-14331
414	-14332
55.	-14333
703	-14334
704	-14335
73.	-14336
731	-14337
831	-14338
84:	-14339
85:	-14340
87:	-14341
8])	-14342
926	-14343
=1.	-14344
Fox	-14345
Ind	-14346
Jul	-14347
Key	-14348
Mor	-14349
Pan	-14350
UFF	-14351
VEN	-14352
[2,	-14353
]-=	-14354
_2|	-14355
_31	-14356
erm	-14357
joh	-14358
kan	-14359
lil	-14360
obt	-14361
oks	-14362
usk	-14363
zen	-14364
{2,	-14365
}}$	-14366
ата	-14367
щен	-14368
▁"/	-14369
▁"_	-14370
▁'(	-14371
▁'6	-14372
▁03	-14373
▁5|	-14374
▁83	-14375
▁93	-14376
▁Bi	-14377
▁PS	-14378
▁RL	-14379
▁\}	-14380
▁il	-14381
▁mc	-14382
▁nk	-14383
▁uv	-14384
','3	-14385
('')	-14386
,2):	-14387
,50,	-14388
-1]]	-14389
-2],	-14390
0","	-14391
1175	-14392
1200	-14393
1220	-14394
1225	-14395
1746	-14396
1]],	-14397
23,,	-14398
2301	-14399
25.7	-14400
251,	-14401
2999	-14402
2[1]	-14403
2]$,	-14404
2]))	-14405
35,,	-14406
35.0	-14407
3585	-14408
3645	-14409
3765	-14410
3]$,	-14411
4.0,	-14412
457,	-14413
672,	-14414
85,,	-14415
8:25	-14416
=10,	-14417
=5$,	-14418
Ford	-14419
IGHT	-14420
Ivan	-14421
Last	-14422
Mike	-14423
NOTE	-14424
Sort	-14425
Trip	-14426
abir	-14427
akra	-14428
atnx	-14429
bear	-14430
circ	-14431
desc	-14432
exam	-14433
gies	-14434
home	-14435
ican	-14436
nary	-14437
surv	-14438
uate	-14439
wick	-14440
wrap	-14441
})$,	-14442
≤109	-14443
▁$25	-14444
▁$2\	-14445
▁$5,	-14446
▁'10	-14447
▁'__	-14448
▁(40	-14449
▁01:	-14450
▁05:	-14451
▁2*(	-14452
▁219	-14453
▁220	-14454
▁321	-14455
▁41.	-14456
▁4}.	-14457
▁5))	-14458
▁6$.	-14459
▁6).	-14460
▁726	-14461
▁8$,	-14462
▁AAA	-14463
▁DEF	-14464
▁Eve	-14465
▁NUM	-14466
▁WWW	-14467
▁XXX	-14468
▁`1,	-14469
▁acy	-14470
▁ast	-14471
▁mas	-14472
▁prv	-14473
▁rhy	-14474
▁til	-14475
▁{5}	-14476
□□□□	-14477
("1")	-14478
-1)/2	-14479
1,0],	-14480
10111	-14481
11380	-14482
2,27.	-14483
29199	-14484
33.33	-14485
45:00	-14486
667,,	-14487
8828,	-14488
>>>>>	-14489
Print	-14490
][1][	-14491
ached	-14492
chool	-14493
crete	-14494
edian	-14495
enger	-14496
eties	-14497
heapq	-14498
ipuri	-14499
jamin	-14500
jefes	-14501
katas	-14502
oulos	-14503
oured	-14504
ourna	-14505
oyaki	-14506
party	-14507
snake	-14508
spell	-14509
ubble	-14510
vasya	-14511
▁$1$;	-14512
▁-2],	-14513
▁0.05	-14514
▁0]$.	-14515
▁100`	-14516
▁11.0	-14517
▁20])	-14518
▁3)$.	-14519
▁3920	-14520
▁4)$.	-14521
▁Amer	-14522
▁Book	-14523
▁Cond	-14524
▁Dora	-14525
▁Mill	-14526
▁Nils	-14527
▁Petr	-14528
▁Pres	-14529
▁Rick	-14530
▁[13,	-14531
▁`3`.	-14532
▁ants	-14533
▁asph	-14534
▁asum	-14535
▁bour	-14536
▁buns	-14537
▁cafe	-14538
▁chiz	-14539
▁dark	-14540
▁ints	-14541
▁leng	-14542
▁mail	-14543
▁mana	-14544
▁maxn	-14545
▁menu	-14546
▁penc	-14547
▁pure	-14548
▁rede	-14549
▁tall	-14550
▁wrap	-14551
+(1<<(	-14552
+1][0]	-14553
+1][1]	-14554
.0,21.	-14555
13.5,,	-14556
31.387	-14557
5,26,,	-14558
654321	-14559
66797,	-14560
73.5,,	-14561
8,262.	-14562
82,31.	-14563
Davies	-14564
[:-1],	-14565
always	-14566
arding	-14567
braham	-14568
bruary	-14569
cyclic	-14570
damage	-14571
dupabc	-14572
ectors	-14573
enders	-14574
ensils	-14575
fitted	-14576
knight	-14577
levant	-14578
marked	-14579
orable	-14580
pandas	-14581
routes	-14582
status	-14583
urence	-14584
verses	-14585
window	-14586
овател	-14587
▁#####	-14588
▁-1.3,	-14589
▁08:25	-14590
▁10]])	-14591
▁BELOW	-14592
▁Ellen	-14593
▁Ernst	-14594
▁Excel	-14595
▁Graph	-14596
▁Order	-14597
▁Upper	-14598
▁abcde	-14599
▁court	-14600
▁crime	-14601
▁earth	-14602
▁evens	-14603
▁focus	-14604
▁forth	-14605
▁greed	-14606
▁holes	-14607
▁imple	-14608
▁inhab	-14609
▁navig	-14610
▁newly	-14611
▁newsp	-14612
▁perms	-14613
▁radix	-14614
▁slide	-14615
▁snack	-14616
▁sorts	-14617
▁speak	-14618
▁squad	-14619
"")""",	-14620
0,0,2,"	-14621
2,1,1,"	-14622
6,1,1,"	-14623
8,0,2,"	-14624
9,0,2,"	-14625
[::-1][	-14626
support	-14627
▁10000,	-14628
▁117974	-14629
▁14879,	-14630
▁2-----	-14631
▁310127	-14632
▁Rabbit	-14633
▁Repeat	-14634
▁Sunday	-14635
▁assemb	-14636
▁clever	-14637
▁gcddef	-14638
▁growth	-14639
▁ranked	-14640
▁reload	-14641
▁remote	-14642
▁ribbon	-14643
▁safety	-14644
▁scikit	-14645
▁strugg	-14646
▁substr	-14647
▁пример	-14648
▁символ	-14649
,18,1,0,	-14650
,27,1,0,	-14651
1,2,1137	-14652
1,2,3],[	-14653
10^{100}	-14654
7.7333,,	-14655
aspberry	-14656
category	-14657
equation	-14658
structor	-14659
weighted	-14660
▁2012-10	-14661
▁Bertram	-14662
▁General	-14663
▁Joisino	-14664
▁License	-14665
▁Rainbow	-14666
▁acyclic	-14667
▁bourles	-14668
▁careful	-14669
▁continu	-14670
▁excited	-14671
▁fingers	-14672
▁firstly	-14673
▁rolling	-14674
▁senator	-14675
▁serving	-14676
▁setting	-14677
▁systems	-14678
▁watches	-14679
27.7208,,	-14680
31.3875,,	-14681
entagonal	-14682
imination	-14683
ournament	-14684
placement	-14685
ponential	-14686
sequently	-14687
symmetric	-14688
▁AtCoDeer	-14689
▁Benjamin	-14690
▁Dreamoon	-14691
▁Karlsson	-14692
▁ancestor	-14693
▁collects	-14694
▁demonstr	-14695
▁expanded	-14696
▁hamsters	-14697
▁intended	-14698
▁lemmings	-14699
▁outgoing	-14700
▁purposes	-14701
▁superior	-14702
▁teaching	-14703
▁template	-14704
3101295,39	-14705
Difficulty	-14706
additional	-14707
duplicated	-14708
▁2000-01-0	-14709
▁backwards	-14710
▁centroids	-14711
▁decompose	-14712
▁decrement	-14713
▁everybody	-14714
▁execution	-14715
▁guarantee	-14716
▁listening	-14717
▁paintings	-14718
▁secondary	-14719
▁selecting	-14720
▁signature	-14721
▁startTime	-14722
▁translate	-14723
82,31.275,,	-14724
PQRSTUVWXYZ	-14725
▁17608,262.	-14726
▁Expression	-14727
▁appearance	-14728
▁comparison	-14729
▁convenient	-14730
▁department	-14731
▁eliminated	-14732
▁kilometers	-14733
▁similarity	-14734
▁smartphone	-14735
▁travelling	-14736
▁understood	-14737
77,31.3875,,	-14738
▁caterpillar	-14739
▁compartment	-14740
▁efficiently	-14741
▁14879,73.5,,	-14742
▁abbreviation	-14743
▁kindergarten	-14744
▁participated	-14745
▁subordinates	-14746
▁mathematician	-14747
▁configurations	-14748
,)	-14749
1\	-14750
6\	-14751
:`	-14752
=8	-14753
>.	-14754
><	-14755
Ac	-14756
Di	-14757
Dr	-14758
Su	-14759
TO	-14760
Up	-14761
_)	-14762
ao	-14763
fm	-14764
iB	-14765
mu	-14766
nh	-14767
rt	-14768
uk	-14769
·1	-14770
·2	-14771
ря	-14772
▁·	-14773
▁л	-14774
▁□	-14775
とき	-14776
%20	-14777
');	-14778
'-'	-14779
(1+	-14780
));	-14781
)].	-14782
*((	-14783
--|	-14784
188	-14785
1]:	-14786
2]:	-14787
348	-14788
35:	-14789
4):	-14790
48,	-14791
50:	-14792
60)	-14793
64:	-14794
66:	-14795
67:	-14796
730	-14797
767	-14798
88:	-14799
89:	-14800
908	-14801
97,	-14802
ABA	-14803
Dis	-14804
ERN	-14805
FIN	-14806
Har	-14807
Man	-14808
PLE	-14809
]',	-14810
])-	-14811
ali	-14812
bag	-14813
bfs	-14814
bug	-14815
cer	-14816
dgd	-14817
dir	-14818
ira	-14819
ita	-14820
lat	-14821
nCr	-14822
nix	-14823
otu	-14824
sci	-14825
tip	-14826
too	-14827
ujo	-14828
who	-14829
yom	-14830
|,|	-14831
ина	-14832
пед	-14833
сто	-14834
▁04	-14835
▁4|	-14836
▁9$	-14837
▁Ak	-14838
▁Ka	-14839
▁TA	-14840
▁Vi	-14841
▁ey	-14842
▁fn	-14843
▁nl	-14844
▁pm	-14845
▁tz	-14846
▁vc	-14847
▁|5	-14848
▁бы	-14849
!=1:	-14850
','7	-14851
(20)	-14852
(50,	-14853
-1$,	-14854
10",	-14855
1037	-14856
1079	-14857
10^4	-14858
126,	-14859
13],	-14860
17.5	-14861
1738	-14862
2-15	-14863
201,	-14864
25],	-14865
261,	-14866
2670	-14867
2708	-14868
2880	-14869
2]])	-14870
3477	-14871
35.5	-14872
35.9	-14873
3723	-14874
4785	-14875
4]$,	-14876
5,1,	-14877
6000	-14878
7324	-14879
785,	-14880
8.0,	-14881
9995	-14882
=1}^	-14883
=3$.	-14884
=[1]	-14885
Byte	-14886
City	-14887
Harr	-14888
Land	-14889
Rect	-14890
\_\_	-14891
abac	-14892
ably	-14893
ados	-14894
anic	-14895
doll	-14896
glas	-14897
hong	-14898
nmax	-14899
oore	-14900
ovic	-14901
seqs	-14902
sold	-14903
song	-14904
tail	-14905
ulse	-14906
yles	-14907
})^{	-14908
▁")]	-14909
▁"21	-14910
▁$+$	-14911
▁$15	-14912
▁$=$	-14913
▁'))	-14914
▁'19	-14915
▁(0-	-14916
▁-**	-14917
▁0$)	-14918
▁0.,	-14919
▁12]	-14920
▁132	-14921
▁249	-14922
▁3)]	-14923
▁3].	-14924
▁5.,	-14925
▁7),	-14926
▁72,	-14927
▁82,	-14928
▁;-)	-14929
▁APP	-14930
▁FOR	-14931
▁Fen	-14932
▁Fer	-14933
▁Jan	-14934
▁Joh	-14935
▁Kim	-14936
▁Leo	-14937
▁Mod	-14938
▁Sca	-14939
▁Yay	-14940
▁[];	-14941
▁chk	-14942
▁clr	-14943
▁dut	-14944
▁eff	-14945
▁eqn	-14946
▁fed	-14947
▁kmp	-14948
▁lcs	-14949
▁nap	-14950
▁url	-14951
▁zoo	-14952
▁{8}	-14953
▁воз	-14954
▁выс	-14955
▁цел	-14956
([0])	-14957
)[0])	-14958
+1]):	-14959
-1]):	-14960
10^5$	-14961
1[0])	-14962
8-19:	-14963
Peter	-14964
Steps	-14965
Title	-14966
[0]==	-14967
accum	-14968
adium	-14969
agers	-14970
amele	-14971
avail	-14972
balls	-14973
bling	-14974
blobs	-14975
emies	-14976
fixed	-14977
hetic	-14978
innie	-14979
layer	-14980
liest	-14981
nable	-14982
proba	-14983
rease	-14984
signQ	-14985
tower	-14986
vable	-14987
weets	-14988
сипед	-14989
▁...]	-14990
▁1)$;	-14991
▁100;	-14992
▁1148	-14993
▁123,	-14994
▁13.0	-14995
▁200)	-14996
▁3]),	-14997
▁Back	-14998
▁Brid	-14999
▁Dele	-15000
▁Give	-15001
▁Liss	-15002
▁Olya	-15003
▁[14,	-15004
▁`10`	-15005
▁`4`.	-15006
▁bake	-15007
▁beds	-15008
▁chop	-15009
▁conv	-15010
▁crop	-15011
▁fond	-15012
▁hear	-15013
▁john	-15014
▁mesh	-15015
▁para	-15016
▁pins	-15017
▁redu	-15018
▁sits	-15019
▁subs	-15020
"],[".	-15021
-1,-1,	-15022
2013-0	-15023
333333	-15024
Random	-15025
Remove	-15026
[1:]):	-15027
allace	-15028
avings	-15029
coords	-15030
dbinom	-15031
estyle	-15032
hongli	-15033
ignore	-15034
ildong	-15035
itches	-15036
ollatz	-15037
ouglas	-15038
phants	-15039
states	-15040
strong	-15041
thresh	-15042
trainX	-15043
vested	-15044
vstack	-15045
}{2}$.	-15046
≤105$1	-15047
▁$1$).	-15048
▁$\{2,	-15049
▁2899.	-15050
▁5000)	-15051
▁6.95,	-15052
▁Below	-15053
▁Elsie	-15054
▁Jerry	-15055
▁Koyom	-15056
▁Light	-15057
▁Paper	-15058
▁Story	-15059
▁[1,2]	-15060
▁[[57,	-15061
▁acade	-15062
▁beers	-15063
▁camel	-15064
▁chats	-15065
▁cream	-15066
▁curve	-15067
▁debug	-15068
▁dirty	-15069
▁heavy	-15070
▁lined	-15071
▁merch	-15072
▁pitch	-15073
▁polar	-15074
▁roman	-15075
▁saved	-15076
▁seper	-15077
▁staff	-15078
▁teeth	-15079
▁tiger	-15080
▁trump	-15081
▁weigh	-15082
/1/19",	-15083
Numbers	-15084
consist	-15085
gentina	-15086
heapify	-15087
johnson	-15088
nothing	-15089
propert	-15090
section	-15091
tenance	-15092
unstack	-15093
ходится	-15094
▁//////	-15095
▁106909	-15096
▁10^18,	-15097
▁5000$)	-15098
▁Doctor	-15099
▁Farmer	-15100
▁Island	-15101
▁Pascal	-15102
▁Rating	-15103
▁Though	-15104
▁accmap	-15105
▁adjust	-15106
▁advant	-15107
▁advice	-15108
▁asleep	-15109
▁burger	-15110
▁centre	-15111
▁coders	-15112
▁compil	-15113
▁compri	-15114
▁detail	-15115
▁drives	-15116
▁emails	-15117
▁guards	-15118
▁helper	-15119
▁kdtree	-15120
▁keypad	-15121
▁loaded	-15122
▁maxlen	-15123
▁medals	-15124
▁merged	-15125
▁pseudo	-15126
▁reform	-15127
▁refuel	-15128
▁rinput	-15129
▁snacks	-15130
▁stated	-15131
▁strand	-15132
Survived	-15133
[::-1]))	-15134
district	-15135
localize	-15136
pairwise	-15137
repeated	-15138
▁"2016-0	-15139
▁2013-11	-15140
▁72.4399	-15141
▁Imagine	-15142
▁Natasha	-15143
▁aligned	-15144
▁anymore	-15145
▁athlete	-15146
▁ceildef	-15147
▁centers	-15148
▁chapter	-15149
▁comfort	-15150
▁freight	-15151
▁partial	-15152
▁prevent	-15153
▁protect	-15154
▁sensors	-15155
▁stadium	-15156
▁staying	-15157
▁ternary	-15158
000.0,26.	-15159
Regressor	-15160
centroids	-15161
perimeter	-15162
represent	-15163
truncated	-15164
▁Distance	-15165
▁Toastman	-15166
▁[1,1,1],	-15167
▁[1,2,3],	-15168
▁affected	-15169
▁beginner	-15170
▁computed	-15171
▁filename	-15172
▁inspired	-15173
▁intellig	-15174
▁interpol	-15175
▁magazine	-15176
▁mistakes	-15177
▁polyline	-15178
▁portions	-15179
▁services	-15180
▁slightly	-15181
▁stopping	-15182
▁takoyaki	-15183
▁unlocked	-15184
▁whatever	-15185
2013-02-15	-15186
2016-05-21	-15187
2019-01-22	-15188
bracketing	-15189
inversions	-15190
transposed	-15191
▁10^{-6}$.	-15192
▁activated	-15193
▁creatures	-15194
▁developed	-15195
▁disappear	-15196
▁discounts	-15197
▁embedding	-15198
▁encounter	-15199
▁engineers	-15200
▁expansion	-15201
▁fractions	-15202
▁kilometer	-15203
▁minimizes	-15204
▁ornaments	-15205
▁similarly	-15206
▁souvenirs	-15207
▁stdoutdef	-15208
▁submitted	-15209
▁summation	-15210
▁велосипед	-15211
▁находится	-15212
assertEqual	-15213
▁2019-01-22	-15214
▁2021-04-10	-15215
▁Assignment	-15216
▁collisions	-15217
▁problemset	-15218
▁separating	-15219
++++++++++++	-15220
▁"2021-04-10	-15221
▁capitalized	-15222
▁certificate	-15223
▁challenging	-15224
▁highlighted	-15225
▁improvement	-15226
▁orientation	-15227
▁preparation	-15228
▁reconstruct	-15229
#############	-15230
▁constructing	-15231
▁distributing	-15232
▁sequentially	-15233
▁transactions	-15234
▁concentration	-15235
▁2017-12-18-19:	-15236
!>	-15237
#'	-15238
3(	-15239
4[	-15240
6*	-15241
:0	-15242
:=	-15243
<0	-15244
=-	-15245
Ak	-15246
DB	-15247
FI	-15248
Ha	-15249
LR	-15250
MF	-15251
UN	-15252
\/	-15253
`(	-15254
bM	-15255
yt	-15256
zA	-15257
za	-15258
|=	-15259
|`	-15260
иб	-15261
ль	-15262
ない	-15263
!"`	-15264
!',	-15265
'(?	-15266
(".	-15267
()"	-15268
(9,	-15269
)>=	-15270
)`,	-15271
)`.	-15272
+1<	-15273
..,	-15274
.3,	-15275
.6,	-15276
//3	-15277
/3/	-15278
0).	-15279
181	-15280
203	-15281
413	-15282
424	-15283
457	-15284
6.4	-15285
65:	-15286
69:	-15287
6])	-15288
718	-15289
75.	-15290
AGC	-15291
DDD	-15292
DIV	-15293
Day	-15294
Map	-15295
Mem	-15296
]);	-15297
_):	-15298
baa	-15299
ban	-15300
ddd	-15301
eny	-15302
fam	-15303
fey	-15304
fil	-15305
gam	-15306
nov	-15307
oct	-15308
sex	-15309
tgt	-15310
xyy	-15311
yam	-15312
{0}	-15313
|$.	-15314
вед	-15315
ряд	-15316
▁"8	-15317
▁'[	-15318
▁-+	-15319
▁3^	-15320
▁4*	-15321
▁73	-15322
▁Cr	-15323
▁Du	-15324
▁FL	-15325
▁IA	-15326
▁NE	-15327
▁OK	-15328
▁Ok	-15329
▁TO	-15330
▁cm	-15331
▁dq	-15332
▁tn	-15333
(101	-15334
(3),	-15335
)-1:	-15336
**(1	-15337
+1]=	-15338
+2+2	-15339
+2][	-15340
,47,	-15341
-03,	-15342
.5],	-15343
000"	-15344
004,	-15345
10],	-15346
11',	-15347
16),	-15348
209,	-15349
21.7	-15350
25.0	-15351
2656	-15352
2799	-15353
2857	-15354
311,	-15355
37.0	-15356
3701	-15357
3906	-15358
6,9,	-15359
6484	-15360
6699	-15361
7509	-15362
801,	-15363
8685	-15364
998,	-15365
:]))	-15366
=4$,	-15367
=[[0	-15368
ASDF	-15369
CONT	-15370
Down	-15371
High	-15372
[-2:	-15373
[0-9	-15374
[2]-	-15375
]=-1	-15376
arge	-15377
corr	-15378
fuck	-15379
gaps	-15380
guin	-15381
igue	-15382
ille	-15383
illy	-15384
mber	-15385
memo	-15386
nnnn	-15387
onze	-15388
orig	-15389
ozha	-15390
pped	-15391
pril	-15392
rupt	-15393
seen	-15394
such	-15395
tele	-15396
ysis	-15397
имал	-15398
▁$(0	-15399
▁$24	-15400
▁$90	-15401
▁**3	-15402
▁-50	-15403
▁10%	-15404
▁117	-15405
▁1<<	-15406
▁217	-15407
▁228	-15408
▁30.	-15409
▁50%	-15410
▁6$,	-15411
▁78,	-15412
▁80,	-15413
▁89,	-15414
▁Big	-15415
▁COD	-15416
▁CON	-15417
▁Kon	-15418
▁Pen	-15419
▁SQL	-15420
▁STD	-15421
▁USE	-15422
▁[]]	-15423
▁`15	-15424
▁`6`	-15425
▁alt	-15426
▁arg	-15427
▁aux	-15428
▁dry	-15429
▁lev	-15430
▁{4,	-15431
▁для	-15432
(26)]	-15433
)==0:	-15434
19810	-15435
2321,	-15436
31515	-15437
=[[1,	-15438
AABAB	-15439
Delta	-15440
Paris	-15441
Seven	-15442
Table	-15443
align	-15444
ancer	-15445
arist	-15446
asser	-15447
cache	-15448
games	-15449
iable	-15450
isher	-15451
itary	-15452
ivity	-15453
jumps	-15454
olorp	-15455
ombie	-15456
ondon	-15457
otega	-15458
owels	-15459
ronic	-15460
sheep	-15461
vance	-15462
}{2},	-15463
▁"111	-15464
▁##',	-15465
▁$2$)	-15466
▁$[2;	-15467
▁'1')	-15468
▁'123	-15469
▁'3',	-15470
▁(-2)	-15471
▁0.00	-15472
▁0.21	-15473
▁10).	-15474
▁120.	-15475
▁12],	-15476
▁144,	-15477
▁300,	-15478
▁5)$,	-15479
▁6]$.	-15480
▁8]])	-15481
▁Cent	-15482
▁Jedi	-15483
▁Maks	-15484
▁TIME	-15485
▁Turn	-15486
▁Yang	-15487
▁[23,	-15488
▁```2	-15489
▁abac	-15490
▁acts	-15491
▁barn	-15492
▁bowl	-15493
▁clue	-15494
▁fees	-15495
▁hall	-15496
▁hide	-15497
▁hull	-15498
▁lone	-15499
▁mole	-15500
▁numR	-15501
▁quot	-15502
▁rose	-15503
▁scan	-15504
▁sumA	-15505
▁sumi	-15506
▁wave	-15507
.0,18.	-15508
100000	-15509
10^9+7	-15510
877929	-15511
88,27.	-15512
BWBWBW	-15513
Carter	-15514
[1:]))	-15515
adabra	-15516
arshad	-15517
artist	-15518
avirus	-15519
encies	-15520
failed	-15521
fessor	-15522
models	-15523
ongcow	-15524
parate	-15525
proces	-15526
within	-15527
xyzxyz	-15528
▁"2016	-15529
▁(2,2)	-15530
▁0.8],	-15531
▁11933	-15532
▁2000.	-15533
▁Danik	-15534
▁Innok	-15535
▁Range	-15536
▁Solve	-15537
▁[3,2,	-15538
▁[[12,	-15539
▁badge	-15540
▁beads	-15541
▁blows	-15542
▁bread	-15543
▁conqu	-15544
▁crush	-15545
▁flour	-15546
▁flush	-15547
▁influ	-15548
▁knock	-15549
▁login	-15550
▁march	-15551
▁media	-15552
▁neigh	-15553
▁plots	-15554
▁sorce	-15555
▁veget	-15556
▁wrest	-15557
▁сторо	-15558
▁числа	-15559
703125,	-15560
Balance	-15561
Correct	-15562
Strings	-15563
appings	-15564
aristas	-15565
eryozha	-15566
getitem	-15567
highest	-15568
implify	-15569
payment	-15570
reading	-15571
shuffle	-15572
singles	-15573
▁000000	-15574
▁10^{15	-15575
▁10^{5}	-15576
▁Append	-15577
▁Double	-15578
▁Eugene	-15579
▁Marmot	-15580
▁Nikhil	-15581
▁absent	-15582
▁bullet	-15583
▁contro	-15584
▁depths	-15585
▁fairly	-15586
▁forced	-15587
▁golden	-15588
▁graphs	-15589
▁honest	-15590
▁liquid	-15591
▁locker	-15592
▁myData	-15593
▁rabbit	-15594
▁sensor	-15595
▁viewed	-15596
▁послед	-15597
DateTime	-15598
SubArray	-15599
covering	-15600
elevator	-15601
fraction	-15602
ineapple	-15603
matrices	-15604
rightExp	-15605
ulations	-15606
▁2014-11	-15607
▁Average	-15608
▁Creatnx	-15609
▁Invalid	-15610
▁Regular	-15611
▁[1,1,1]	-15612
▁```1```	-15613
▁accumul	-15614
▁aggfunc	-15615
▁atleast	-15616
▁cashier	-15617
▁chamber	-15618
▁charger	-15619
▁chizhik	-15620
▁collide	-15621
▁defence	-15622
▁endless	-15623
▁grandma	-15624
▁install	-15625
▁knowing	-15626
▁omitted	-15627
▁painter	-15628
▁payment	-15629
▁phrases	-15630
▁primary	-15631
▁puppies	-15632
▁reports	-15633
▁science	-15634
▁seating	-15635
▁sqrtdef	-15636
▁sublist	-15637
▁thieves	-15638
▁washing	-15639
--------+	-15640
---------	-15641
30517578,	-15642
andigital	-15643
unsqueeze	-15644
▁Elements	-15645
▁Valentin	-15646
▁Variable	-15647
▁airplane	-15648
▁boarding	-15649
▁consumed	-15650
▁diamonds	-15651
▁joystick	-15652
▁numberOf	-15653
▁programs	-15654
▁released	-15655
▁shopping	-15656
▁startups	-15657
▁touching	-15658
▁unsorted	-15659
▁utensils	-15660
Operations	-15661
polynomial	-15662
▁(10^9+7).	-15663
▁Challenge	-15664
▁assistant	-15665
▁completes	-15666
▁decreased	-15667
▁elephants	-15668
▁equations	-15669
▁euclidean	-15670
▁exception	-15671
▁forgotten	-15672
▁fragments	-15673
▁platforms	-15674
▁scientist	-15675
▁travelled	-15676
▁100\,000$)	-15677
▁completing	-15678
▁contractor	-15679
▁correction	-15680
▁diagonally	-15681
▁factorials	-15682
▁fractional	-15683
▁popularity	-15684
▁positioned	-15685
▁scientific	-15686
▁surrounded	-15687
▁transforms	-15688
▁corporation	-15689
▁educational	-15690
▁exponential	-15691
▁implemented	-15692
▁maintenance	-15693
▁millimeters	-15694
▁polynomials	-15695
▁preferences	-15696
▁------------	-15697
▁implementing	-15698
classification	-15699
▁functionality	-15700
▁notifications	-15701
999999999999999	-15702
(7	-15703
1>	-15704
72	-15705
?!	-15706
BG	-15707
Bo	-15708
EO	-15709
GD	-15710
LC	-15711
LD	-15712
LF	-15713
RG	-15714
cn	-15715
hl	-15716
hw	-15717
jk	-15718
pw	-15719
xp	-15720
}:	-15721
ну	-15722
пу	-15723
▁£	-15724
める	-15725
']=	-15726
("!	-15727
("(	-15728
(30	-15729
)](	-15730
,6,	-15731
,8,	-15732
.8,	-15733
/11	-15734
12}	-15735
2**	-15736
3].	-15737
40:	-15738
54,	-15739
559	-15740
61.	-15741
666	-15742
6]:	-15743
745	-15744
76.	-15745
95,	-15746
=((	-15747
=11	-15748
?")	-15749
ADY	-15750
ALI	-15751
Bec	-15752
Can	-15753
ICA	-15754
McC	-15755
Pre	-15756
Sol	-15757
]='	-15758
]`,	-15759
_1=	-15760
_2+	-15761
_2_	-15762
ani	-15763
bef	-15764
crr	-15765
gel	-15766
hir	-15767
jin	-15768
jug	-15769
ung	-15770
uzu	-15771
vas	-15772
▁'&	-15773
▁'{	-15774
▁*\	-15775
▁-8	-15776
▁1!	-15777
▁:(	-15778
▁BU	-15779
▁DE	-15780
▁EW	-15781
▁Er	-15782
▁LS	-15783
▁Ms	-15784
▁Wb	-15785
▁[\	-15786
▁].	-15787
▁dn	-15788
▁fb	-15789
▁fp	-15790
▁qr	-15791
▁rc	-15792
▁wi	-15793
▁бу	-15794
('{}	-15795
(0),	-15796
(2*(	-15797
).__	-15798
)]))	-15799
**.5	-15800
*...	-15801
,0))	-15802
-2):	-15803
..."	-15804
008,	-15805
100)	-15806
102,	-15807
1074	-15808
19.4	-15809
2057	-15810
20],	-15811
2176	-15812
226,	-15813
2300	-15814
241,	-15815
293,	-15816
2]].	-15817
3.1,	-15818
3711	-15819
4365	-15820
4499	-15821
455,	-15822
469,	-15823
475,	-15824
5,9,	-15825
62],	-15826
6417	-15827
673,	-15828
6914	-15829
734,	-15830
746,	-15831
7495	-15832
877,	-15833
8867	-15834
891,	-15835
=1$,	-15836
=100	-15837
==-1	-15838
=[0,	-15839
Alex	-15840
Bits	-15841
Days	-15842
Each	-15843
Five	-15844
Lind	-15845
Rice	-15846
Robo	-15847
Text	-15848
USED	-15849
Ware	-15850
]==1	-15851
__':	-15852
_{3}	-15853
abin	-15854
aint	-15855
augh	-15856
bara	-15857
bird	-15858
borg	-15859
cogn	-15860
dele	-15861
door	-15862
erts	-15863
expl	-15864
helm	-15865
hist	-15866
icle	-15867
ilos	-15868
inds	-15869
inpt	-15870
itam	-15871
lsen	-15872
mell	-15873
mino	-15874
moid	-15875
onoi	-15876
outi	-15877
prob	-15878
stre	-15879
than	-15880
uity	-15881
~~~~	-15882
▁"?"	-15883
▁$3,	-15884
▁0]$	-15885
▁2);	-15886
▁2.9	-15887
▁213	-15888
▁227	-15889
▁24.	-15890
▁27,	-15891
▁345	-15892
▁3^0	-15893
▁444	-15894
▁47,	-15895
▁51,	-15896
▁58,	-15897
▁6.,	-15898
▁7$,	-15899
▁8$.	-15900
▁84,	-15901
▁=='	-15902
▁Avg	-15903
▁BFS	-15904
▁CAN	-15905
▁Cod	-15906
▁DIR	-15907
▁Dep	-15908
▁Doo	-15909
▁Hol	-15910
▁Mel	-15911
▁ONE	-15912
▁Rac	-15913
▁Van	-15914
▁[])	-15915
▁dat	-15916
▁dev	-15917
▁dgd	-15918
▁eye	-15919
▁hue	-15920
▁jam	-15921
▁lps	-15922
▁mur	-15923
▁ric	-15924
▁{7}	-15925
▁сто	-15926
▇_▇_	-15927
((41,	-15928
)""",	-15929
**2))	-15930
12','	-15931
1211,	-15932
1583,	-15933
2,1,"	-15934
2323,	-15935
23985	-15936
2734,	-15937
3,2,"	-15938
30989	-15939
34990	-15940
37037	-15941
39209	-15942
5,2,"	-15943
5,26.	-15944
6,2,"	-15945
6433,	-15946
7,1,"	-15947
7792,	-15948
792,,	-15949
8,1,"	-15950
85449	-15951
8984,	-15952
9,26.	-15953
93.5,	-15954
:00',	-15955
Annie	-15956
Boost	-15957
Bound	-15958
Level	-15959
Limak	-15960
Skoog	-15961
[1]][	-15962
]]+=1	-15963
__())	-15964
agons	-15965
akesh	-15966
aming	-15967
ansen	-15968
appro	-15969
arith	-15970
asaur	-15971
coeff	-15972
eaten	-15973
ensen	-15974
force	-15975
guins	-15976
icarp	-15977
iores	-15978
ircle	-15979
izard	-15980
likes	-15981
liter	-15982
olang	-15983
oshop	-15984
parts	-15985
piped	-15986
rinth	-15987
rolls	-15988
types	-15989
ucket	-15990
ustin	-15991
views	-15992
werty	-15993
венно	-15994
▁$13$	-15995
▁'#':	-15996
▁'100	-15997
▁(20,	-15998
▁-1))	-15999
▁//=>	-16000
▁0.24	-16001
▁0.3,	-16002
▁0.7,	-16003
▁000.	-16004
▁1)):	-16005
▁1.58	-16006
▁1018	-16007
▁14],	-16008
▁1]):	-16009
▁20],	-16010
▁5.0,	-16011
▁Adel	-16012
▁Arpa	-16013
▁Fizz	-16014
▁Grad	-16015
▁LIST	-16016
▁Lets	-16017
▁Pict	-16018
▁Trip	-16019
▁Yuzu	-16020
▁[[0.	-16021
▁`1`,	-16022
▁auto	-16023
▁cart	-16024
▁dask	-16025
▁fret	-16026
▁maxQ	-16027
▁orig	-16028
▁panc	-16029
▁phys	-16030
▁recr	-16031
▁vict	-16032
▁zone	-16033
▁{}".	-16034
▁зада	-16035
▁комп	-16036
,,2,0,	-16037
-1,-2,	-16038
.0,14.	-16039
.0,15.	-16040
0,2,26	-16041
11.5,,	-16042
152587	-16043
168945	-16044
19950,	-16045
3,0,1,	-16046
3,13,,	-16047
3,4],[	-16048
305175	-16049
78125,	-16050
81,151	-16051
ATTERN	-16052
Integr	-16053
Panula	-16054
Player	-16055
alking	-16056
alties	-16057
alware	-16058
border	-16059
custom	-16060
fights	-16061
finish	-16062
hstack	-16063
huehue	-16064
ifford	-16065
illian	-16066
knowns	-16067
orange	-16068
oronoi	-16069
ortran	-16070
racket	-16071
ressor	-16072
rogram	-16073
satisf	-16074
solang	-16075
tailed	-16076
uskald	-16077
yrinth	-16078
ведите	-16079
▁"-1".	-16080
▁($2$,	-16081
▁(2,1)	-16082
▁-0.13	-16083
▁0.422	-16084
▁01010	-16085
▁10^7$	-16086
▁10^9;	-16087
▁12321	-16088
▁12:50	-16089
▁18:30	-16090
▁1][1]	-16091
▁21:25	-16092
▁40000	-16093
▁Child	-16094
▁Delia	-16095
▁Edith	-16096
▁Frame	-16097
▁Kabir	-16098
▁Numpy	-16099
[...]
